#include "magic_wand_model_data.h"
// We need to keep the data array aligned on some architectures.
#ifdef __has_attribute
#define HAVE_ATTRIBUTE(x) __has_attribute(x)
#else
#define HAVE_ATTRIBUTE(x) 0
#endif
#if HAVE_ATTRIBUTE(aligned) || (defined(__GNUC__) && !defined(__clang__))
#define DATA_ALIGN_ATTRIBUTE __attribute__((aligned(4)))
#else
#define DATA_ALIGN_ATTRIBUTE
#endif

const unsigned char g_magic_wand_model_data[] DATA_ALIGN_ATTRIBUTE = {
  // Paste the data of the char array in `src/model.cc` here
  0x08, 0x00, 0x00, 0x00, 0x54, 0x46, 0x4c, 0x33, 0x62, 0xff, 0xff, 0xff,
  0x03, 0x00, 0x00, 0x00, 0x10, 0x00, 0x00, 0x00, 0x24, 0x00, 0x00, 0x00,
  0x78, 0x00, 0x00, 0x00, 0x24, 0x00, 0x00, 0x00, 0x05, 0x00, 0x00, 0x00,
  0x78, 0x05, 0x00, 0x00, 0xb0, 0x04, 0x00, 0x00, 0xe0, 0x02, 0x00, 0x00,
  0x60, 0x02, 0x00, 0x00, 0x54, 0x01, 0x00, 0x00, 0x01, 0x00, 0x00, 0x00,
  0x78, 0x00, 0x00, 0x00, 0x13, 0x00, 0x00, 0x00, 0xd4, 0x2f, 0x00, 0x00,
  0xd0, 0x2f, 0x00, 0x00, 0xdc, 0x2e, 0x00, 0x00, 0x68, 0x2e, 0x00, 0x00,
  0xfc, 0x2d, 0x00, 0x00, 0xac, 0x11, 0x00, 0x00, 0x98, 0x10, 0x00, 0x00,
  0xbc, 0x0e, 0x00, 0x00, 0x60, 0x06, 0x00, 0x00, 0xfc, 0x05, 0x00, 0x00,
  0x78, 0x05, 0x00, 0x00, 0xa8, 0x2f, 0x00, 0x00, 0xa4, 0x2f, 0x00, 0x00,
  0xa0, 0x2f, 0x00, 0x00, 0x9c, 0x2f, 0x00, 0x00, 0x98, 0x2f, 0x00, 0x00,
  0x94, 0x2f, 0x00, 0x00, 0x90, 0x2f, 0x00, 0x00, 0x8c, 0x2f, 0x00, 0x00,
  0x0f, 0x00, 0x00, 0x00, 0x4d, 0x4c, 0x49, 0x52, 0x20, 0x43, 0x6f, 0x6e,
  0x76, 0x65, 0x72, 0x74, 0x65, 0x64, 0x2e, 0x00, 0x00, 0x00, 0x0e, 0x00,
  0x18, 0x00, 0x04, 0x00, 0x08, 0x00, 0x0c, 0x00, 0x10, 0x00, 0x14, 0x00,
  0x0e, 0x00, 0x00, 0x00, 0x14, 0x00, 0x00, 0x00, 0x5c, 0x00, 0x00, 0x00,
  0x60, 0x00, 0x00, 0x00, 0x64, 0x00, 0x00, 0x00, 0x84, 0x00, 0x00, 0x00,
  0x12, 0x00, 0x00, 0x00, 0x04, 0x2f, 0x00, 0x00, 0xa0, 0x2e, 0x00, 0x00,
  0xf8, 0x2d, 0x00, 0x00, 0x98, 0x2d, 0x00, 0x00, 0x30, 0x2d, 0x00, 0x00,
  0xdc, 0x10, 0x00, 0x00, 0xc0, 0x0f, 0x00, 0x00, 0xe4, 0x0d, 0x00, 0x00,
  0xa0, 0x05, 0x00, 0x00, 0x3c, 0x05, 0x00, 0x00, 0xb0, 0x04, 0x00, 0x00,
  0xe8, 0x03, 0x00, 0x00, 0x38, 0x03, 0x00, 0x00, 0xa4, 0x02, 0x00, 0x00,
  0x10, 0x02, 0x00, 0x00, 0x90, 0x01, 0x00, 0x00, 0xfc, 0x00, 0x00, 0x00,
  0x80, 0x00, 0x00, 0x00, 0x01, 0x00, 0x00, 0x00, 0x00, 0x00, 0x00, 0x00,
  0x01, 0x00, 0x00, 0x00, 0x11, 0x00, 0x00, 0x00, 0x08, 0x00, 0x00, 0x00,
  0x1c, 0x04, 0x00, 0x00, 0x58, 0x03, 0x00, 0x00, 0xc8, 0x02, 0x00, 0x00,
  0x24, 0x02, 0x00, 0x00, 0xac, 0x01, 0x00, 0x00, 0x10, 0x01, 0x00, 0x00,
  0x94, 0x00, 0x00, 0x00, 0x10, 0x00, 0x00, 0x00, 0x04, 0x00, 0x00, 0x00,
  0x6d, 0x61, 0x69, 0x6e, 0x00, 0x00, 0x00, 0x00, 0x8e, 0xff, 0xff, 0xff,
  0x00, 0x00, 0x00, 0x09, 0x04, 0x00, 0x00, 0x00, 0x1c, 0x00, 0x00, 0x00,
  0x10, 0x00, 0x00, 0x00, 0x04, 0x00, 0x00, 0x00, 0x4e, 0xd2, 0xff, 0xff,
  0x00, 0x00, 0x80, 0x3f, 0x01, 0x00, 0x00, 0x00, 0x11, 0x00, 0x00, 0x00,
  0x01, 0x00, 0x00, 0x00, 0x10, 0x00, 0x00, 0x00, 0xf6, 0xfb, 0xff, 0xff,
  0x00, 0x00, 0x00, 0x19, 0x01, 0x00, 0x00, 0x00, 0xce, 0xd1, 0xff, 0xff,
  0x10, 0x00, 0x00, 0x00, 0x12, 0x00, 0x00, 0x00, 0x14, 0x00, 0x00, 0x00,
  0x20, 0x00, 0x00, 0x00, 0x02, 0x00, 0x00, 0x00, 0x01, 0x00, 0x00, 0x00,
  0x03, 0x00, 0x00, 0x00, 0x08, 0x00, 0x00, 0x00, 0x49, 0x64, 0x65, 0x6e,
  0x74, 0x69, 0x74, 0x79, 0x00, 0x00, 0x00, 0x00, 0x08, 0xd2, 0xff, 0xff,
  0x00, 0x00, 0x0e, 0x00, 0x18, 0x00, 0x08, 0x00, 0x0c, 0x00, 0x10, 0x00,
  0x07, 0x00, 0x14, 0x00, 0x0e, 0x00, 0x00, 0x00, 0x00, 0x00, 0x00, 0x08,
  0x03, 0x00, 0x00, 0x00, 0x18, 0x00, 0x00, 0x00, 0x0c, 0x00, 0x00, 0x00,
  0x04, 0x00, 0x00, 0x00, 0xdc, 0xd1, 0xff, 0xff, 0x01, 0x00, 0x00, 0x00,
  0x10, 0x00, 0x00, 0x00, 0x03, 0x00, 0x00, 0x00, 0x0f, 0x00, 0x00, 0x00,
  0x05, 0x00, 0x00, 0x00, 0x02, 0x00, 0x00, 0x00, 0x46, 0xd2, 0xff, 0xff,
  0x10, 0x00, 0x00, 0x00, 0x11, 0x00, 0x00, 0x00, 0x14, 0x00, 0x00, 0x00,
  0x30, 0x00, 0x00, 0x00, 0x02, 0x00, 0x00, 0x00, 0x01, 0x00, 0x00, 0x00,
  0x03, 0x00, 0x00, 0x00, 0x1a, 0x00, 0x00, 0x00, 0x73, 0x65, 0x71, 0x75,
  0x65, 0x6e, 0x74, 0x69, 0x61, 0x6c, 0x2f, 0x64, 0x65, 0x6e, 0x73, 0x65,
  0x5f, 0x31, 0x2f, 0x42, 0x69, 0x61, 0x73, 0x41, 0x64, 0x64, 0x00, 0x00,
  0x38, 0xd2, 0xff, 0xff, 0xd6, 0xfd, 0xff, 0xff, 0x00, 0x00, 0x00, 0x08,
  0x03, 0x00, 0x00, 0x00, 0x24, 0x00, 0x00, 0x00, 0x18, 0x00, 0x00, 0x00,
  0x0c, 0x00, 0x00, 0x00, 0x00, 0x00, 0x06, 0x00, 0x08, 0x00, 0x07, 0x00,
  0x06, 0x00, 0x00, 0x00, 0x00, 0x00, 0x00, 0x01, 0x01, 0x00, 0x00, 0x00,
  0x0f, 0x00, 0x00, 0x00, 0x03, 0x00, 0x00, 0x00, 0x0e, 0x00, 0x00, 0x00,
  0x04, 0x00, 0x00, 0x00, 0x01, 0x00, 0x00, 0x00, 0xfe, 0xfc, 0xff, 0xff,
  0x00, 0x00, 0x00, 0x09, 0x01, 0x00, 0x00, 0x00, 0xd6, 0xd2, 0xff, 0xff,
  0x10, 0x00, 0x00, 0x00, 0x10, 0x00, 0x00, 0x00, 0x14, 0x00, 0x00, 0x00,
  0x2c, 0x00, 0x00, 0x00, 0x02, 0x00, 0x00, 0x00, 0x01, 0x00, 0x00, 0x00,
  0x10, 0x00, 0x00, 0x00, 0x15, 0x00, 0x00, 0x00, 0x73, 0x65, 0x71, 0x75,
  0x65, 0x6e, 0x74, 0x69, 0x61, 0x6c, 0x2f, 0x64, 0x65, 0x6e, 0x73, 0x65,
  0x2f, 0x52, 0x65, 0x6c, 0x75, 0x00, 0x00, 0x00, 0x1c, 0xd3, 0xff, 0xff,
  0x00, 0x00, 0x0a, 0x00, 0x10, 0x00, 0x04, 0x00, 0x08, 0x00, 0x0c, 0x00,
  0x0a, 0x00, 0x00, 0x00, 0x02, 0x00, 0x00, 0x00, 0x10, 0x00, 0x00, 0x00,
  0x04, 0x00, 0x00, 0x00, 0x01, 0x00, 0x00, 0x00, 0x0e, 0x00, 0x00, 0x00,
  0x02, 0x00, 0x00, 0x00, 0x0d, 0x00, 0x00, 0x00, 0x03, 0x00, 0x00, 0x00,
  0x7a, 0xfd, 0xff, 0xff, 0x00, 0x00, 0x00, 0x16, 0x01, 0x00, 0x00, 0x00,
  0x52, 0xd3, 0xff, 0xff, 0x10, 0x00, 0x00, 0x00, 0x0f, 0x00, 0x00, 0x00,
  0x14, 0x00, 0x00, 0x00, 0x30, 0x00, 0x00, 0x00, 0x02, 0x00, 0x00, 0x00,
  0x01, 0x00, 0x00, 0x00, 0x70, 0x00, 0x00, 0x00, 0x1a, 0x00, 0x00, 0x00,
  0x73, 0x65, 0x71, 0x75, 0x65, 0x6e, 0x74, 0x69, 0x61, 0x6c, 0x2f, 0x66,
  0x6c, 0x61, 0x74, 0x74, 0x65, 0x6e, 0x2f, 0x52, 0x65, 0x73, 0x68, 0x61,
  0x70, 0x65, 0x00, 0x00, 0x44, 0xd3, 0xff, 0xff, 0xe2, 0xfe, 0xff, 0xff,
  0x00, 0x00, 0x00, 0x05, 0x01, 0x00, 0x00, 0x00, 0x38, 0x00, 0x00, 0x00,
  0x2c, 0x00, 0x00, 0x00, 0x14, 0x00, 0x00, 0x00, 0x00, 0x00, 0x0e, 0x00,
  0x14, 0x00, 0x00, 0x00, 0x10, 0x00, 0x0c, 0x00, 0x08, 0x00, 0x04, 0x00,
  0x0e, 0x00, 0x00, 0x00, 0x03, 0x00, 0x00, 0x00, 0x01, 0x00, 0x00, 0x00,
  0x03, 0x00, 0x00, 0x00, 0x01, 0x00, 0x00, 0x00, 0x01, 0x00, 0x00, 0x00,
  0x0d, 0x00, 0x00, 0x00, 0x01, 0x00, 0x00, 0x00, 0x0c, 0x00, 0x00, 0x00,
  0xe2, 0xd3, 0xff, 0xff, 0x10, 0x00, 0x00, 0x00, 0x0e, 0x00, 0x00, 0x00,
  0x1c, 0x00, 0x00, 0x00, 0x40, 0x00, 0x00, 0x00, 0x04, 0x00, 0x00, 0x00,
  0x01, 0x00, 0x00, 0x00, 0x07, 0x00, 0x00, 0x00, 0x01, 0x00, 0x00, 0x00,
  0x10, 0x00, 0x00, 0x00, 0x22, 0x00, 0x00, 0x00, 0x73, 0x65, 0x71, 0x75,
  0x65, 0x6e, 0x74, 0x69, 0x61, 0x6c, 0x2f, 0x6d, 0x61, 0x78, 0x5f, 0x70,
  0x6f, 0x6f, 0x6c, 0x69, 0x6e, 0x67, 0x32, 0x64, 0x5f, 0x31, 0x2f, 0x4d,
  0x61, 0x78, 0x50, 0x6f, 0x6f, 0x6c, 0x00, 0x00, 0xe4, 0xd3, 0xff, 0xff,
  0xc2, 0xfe, 0xff, 0xff, 0x00, 0x00, 0x00, 0x01, 0x24, 0x00, 0x00, 0x00,
  0x18, 0x00, 0x00, 0x00, 0x04, 0x00, 0x00, 0x00, 0xb4, 0xfe, 0xff, 0xff,
  0x01, 0x00, 0x00, 0x00, 0x01, 0x00, 0x00, 0x00, 0x00, 0x00, 0x00, 0x01,
  0x01, 0x00, 0x00, 0x00, 0x0c, 0x00, 0x00, 0x00, 0x03, 0x00, 0x00, 0x00,
  0x0b, 0x00, 0x00, 0x00, 0x07, 0x00, 0x00, 0x00, 0x09, 0x00, 0x00, 0x00,
  0x72, 0xd4, 0xff, 0xff, 0x10, 0x00, 0x00, 0x00, 0x0d, 0x00, 0x00, 0x00,
  0x1c, 0x00, 0x00, 0x00, 0x2c, 0x00, 0x00, 0x00, 0x04, 0x00, 0x00, 0x00,
  0x01, 0x00, 0x00, 0x00, 0x15, 0x00, 0x00, 0x00, 0x01, 0x00, 0x00, 0x00,
  0x10, 0x00, 0x00, 0x00, 0x0c, 0x00, 0x00, 0x00, 0x74, 0x66, 0x6c, 0x2e,
  0x63, 0x6f, 0x6e, 0x76, 0x5f, 0x32, 0x64, 0x31, 0x00, 0x00, 0x00, 0x00,
  0xb8, 0xd4, 0xff, 0xff, 0x00, 0x00, 0x0e, 0x00, 0x1a, 0x00, 0x08, 0x00,
  0x0c, 0x00, 0x10, 0x00, 0x07, 0x00, 0x14, 0x00, 0x0e, 0x00, 0x00, 0x00,
  0x00, 0x00, 0x00, 0x05, 0x01, 0x00, 0x00, 0x00, 0x3c, 0x00, 0x00, 0x00,
  0x30, 0x00, 0x00, 0x00, 0x14, 0x00, 0x00, 0x00, 0x00, 0x00, 0x0e, 0x00,
  0x18, 0x00, 0x17, 0x00, 0x10, 0x00, 0x0c, 0x00, 0x08, 0x00, 0x04, 0x00,
  0x0e, 0x00, 0x00, 0x00, 0x03, 0x00, 0x00, 0x00, 0x03, 0x00, 0x00, 0x00,
  0x03, 0x00, 0x00, 0x00, 0x03, 0x00, 0x00, 0x00, 0x00, 0x00, 0x00, 0x01,
  0x01, 0x00, 0x00, 0x00, 0x0b, 0x00, 0x00, 0x00, 0x01, 0x00, 0x00, 0x00,
  0x0a, 0x00, 0x00, 0x00, 0x46, 0xff, 0xff, 0xff, 0x00, 0x00, 0x00, 0x11,
  0x01, 0x00, 0x00, 0x00, 0x1e, 0xd5, 0xff, 0xff, 0x10, 0x00, 0x00, 0x00,
  0x0c, 0x00, 0x00, 0x00, 0x1c, 0x00, 0x00, 0x00, 0x40, 0x00, 0x00, 0x00,
  0x04, 0x00, 0x00, 0x00, 0x01, 0x00, 0x00, 0x00, 0x15, 0x00, 0x00, 0x00,
  0x01, 0x00, 0x00, 0x00, 0x08, 0x00, 0x00, 0x00, 0x20, 0x00, 0x00, 0x00,
  0x73, 0x65, 0x71, 0x75, 0x65, 0x6e, 0x74, 0x69, 0x61, 0x6c, 0x2f, 0x6d,
  0x61, 0x78, 0x5f, 0x70, 0x6f, 0x6f, 0x6c, 0x69, 0x6e, 0x67, 0x32, 0x64,
  0x2f, 0x4d, 0x61, 0x78, 0x50, 0x6f, 0x6f, 0x6c, 0x00, 0x00, 0x00, 0x00,
  0x78, 0xd5, 0xff, 0xff, 0x00, 0x00, 0x0e, 0x00, 0x14, 0x00, 0x00, 0x00,
  0x08, 0x00, 0x0c, 0x00, 0x07, 0x00, 0x10, 0x00, 0x0e, 0x00, 0x00, 0x00,
  0x00, 0x00, 0x00, 0x01, 0x30, 0x00, 0x00, 0x00, 0x24, 0x00, 0x00, 0x00,
  0x10, 0x00, 0x00, 0x00, 0x0c, 0x00, 0x10, 0x00, 0x00, 0x00, 0x04, 0x00,
  0x08, 0x00, 0x0f, 0x00, 0x0c, 0x00, 0x00, 0x00, 0x01, 0x00, 0x00, 0x00,
  0x01, 0x00, 0x00, 0x00, 0x00, 0x00, 0x00, 0x01, 0x01, 0x00, 0x00, 0x00,
  0x0a, 0x00, 0x00, 0x00, 0x03, 0x00, 0x00, 0x00, 0x00, 0x00, 0x00, 0x00,
  0x06, 0x00, 0x00, 0x00, 0x08, 0x00, 0x00, 0x00, 0x00, 0x00, 0x0a, 0x00,
  0x0c, 0x00, 0x07, 0x00, 0x00, 0x00, 0x08, 0x00, 0x0a, 0x00, 0x00, 0x00,
  0x00, 0x00, 0x00, 0x03, 0x01, 0x00, 0x00, 0x00, 0xe2, 0xd5, 0xff, 0xff,
  0x10, 0x00, 0x00, 0x00, 0x0b, 0x00, 0x00, 0x00, 0x1c, 0x00, 0x00, 0x00,
  0x28, 0x00, 0x00, 0x00, 0x04, 0x00, 0x00, 0x00, 0x01, 0x00, 0x00, 0x00,
  0x40, 0x00, 0x00, 0x00, 0x03, 0x00, 0x00, 0x00, 0x08, 0x00, 0x00, 0x00,
  0x0b, 0x00, 0x00, 0x00, 0x74, 0x66, 0x6c, 0x2e, 0x63, 0x6f, 0x6e, 0x76,
  0x5f, 0x32, 0x64, 0x00, 0xcc, 0xd5, 0xff, 0xff, 0xc2, 0xd6, 0xff, 0xff,
  0x04, 0x00, 0x00, 0x00, 0x40, 0x00, 0x00, 0x00, 0x68, 0xd6, 0x8b, 0x3e,
  0x4b, 0xcf, 0x90, 0x3f, 0x59, 0x97, 0xcd, 0xbd, 0x84, 0x5d, 0x4a, 0xbf,
  0x83, 0xe2, 0xc7, 0xbd, 0x94, 0xbd, 0xdb, 0xbf, 0xfb, 0x7c, 0x91, 0xbf,
  0x85, 0x12, 0x16, 0x3d, 0xe0, 0x24, 0xda, 0x3f, 0xf6, 0x67, 0xd0, 0xbf,
  0xc8, 0x40, 0x8f, 0x40, 0xe7, 0x31, 0x80, 0x3f, 0x5d, 0x73, 0x1b, 0xc0,
  0xd1, 0xa8, 0x78, 0x40, 0x6c, 0xd8, 0x75, 0xbd, 0x55, 0x0d, 0xcc, 0xbe,
  0x6a, 0xd6, 0xff, 0xff, 0x10, 0x00, 0x00, 0x00, 0x0a, 0x00, 0x00, 0x00,
  0x10, 0x00, 0x00, 0x00, 0x20, 0x00, 0x00, 0x00, 0x01, 0x00, 0x00, 0x00,
  0x10, 0x00, 0x00, 0x00, 0x0d, 0x00, 0x00, 0x00, 0x73, 0x74, 0x64, 0x2e,
  0x63, 0x6f, 0x6e, 0x73, 0x74, 0x61, 0x6e, 0x74, 0x31, 0x00, 0x00, 0x00,
  0x4c, 0xd6, 0xff, 0xff, 0x42, 0xd7, 0xff, 0xff, 0x04, 0x00, 0x00, 0x00,
  0x20, 0x00, 0x00, 0x00, 0x33, 0x80, 0x4e, 0xbd, 0x79, 0xb9, 0x30, 0xc0,
  0xcf, 0x32, 0xe1, 0xbf, 0x21, 0xcd, 0xad, 0xbf, 0x8e, 0xe1, 0xd5, 0xbe,
  0x3e, 0x15, 0x9b, 0xbf, 0xbd, 0xee, 0x8e, 0xbf, 0xeb, 0x88, 0x06, 0xc0,
  0xca, 0xd6, 0xff, 0xff, 0x10, 0x00, 0x00, 0x00, 0x09, 0x00, 0x00, 0x00,
  0x10, 0x00, 0x00, 0x00, 0x20, 0x00, 0x00, 0x00, 0x01, 0x00, 0x00, 0x00,
  0x08, 0x00, 0x00, 0x00, 0x0c, 0x00, 0x00, 0x00, 0x73, 0x74, 0x64, 0x2e,
  0x63, 0x6f, 0x6e, 0x73, 0x74, 0x61, 0x6e, 0x74, 0x00, 0x00, 0x00, 0x00,
  0xac, 0xd6, 0xff, 0xff, 0xa2, 0xd7, 0xff, 0xff, 0x04, 0x00, 0x00, 0x00,
  0x00, 0x08, 0x00, 0x00, 0xfe, 0xf1, 0x6f, 0xbe, 0x91, 0xb6, 0x5e, 0xbe,
  0x25, 0x35, 0x21, 0xbe, 0x65, 0xec, 0xe9, 0xbe, 0xf0, 0xe8, 0xb1, 0x3d,
  0x3f, 0xcf, 0xfc, 0xbc, 0xee, 0xf6, 0x00, 0xbe, 0x23, 0xc2, 0xa2, 0xbe,
  0xbf, 0x28, 0x8d, 0x3e, 0xb8, 0xc4, 0xc2, 0xbd, 0xc9, 0x66, 0xdb, 0xbd,
  0x9d, 0x3a, 0x9d, 0x3e, 0x6e, 0x5b, 0xc4, 0x3e, 0xa1, 0xbf, 0x40, 0x3d,
  0xc3, 0xbb, 0x0d, 0xbd, 0x0b, 0xbb, 0xb8, 0xbd, 0x2a, 0x19, 0x68, 0x3e,
  0x2a, 0xf9, 0xfe, 0xbc, 0x05, 0x13, 0x4f, 0xbe, 0xdf, 0x5d, 0x45, 0xbe,
  0x41, 0xcc, 0x06, 0x3e, 0x2b, 0xf0, 0x2e, 0xbd, 0x7c, 0xa8, 0x62, 0xbd,
  0x81, 0xc8, 0x80, 0xbe, 0xb7, 0x5c, 0xc5, 0x3c, 0x19, 0x6c, 0xb7, 0x3d,
  0x6d, 0xf5, 0x03, 0xbe, 0x59, 0xe4, 0x0b, 0xbd, 0x55, 0xe6, 0x38, 0xbd,
  0x99, 0x86, 0xbf, 0x3c, 0x90, 0x69, 0x8a, 0x3d, 0xa8, 0x0f, 0x82, 0xbe,
  0xc1, 0x81, 0x1b, 0x3d, 0xaf, 0xb6, 0x66, 0xbe, 0x5e, 0x07, 0x66, 0xbd,
  0x42, 0x31, 0xc1, 0xbd, 0x8a, 0xdd, 0xb6, 0xbd, 0xd0, 0x86, 0x56, 0xbd,
  0xc3, 0xca, 0xda, 0xbd, 0xda, 0xf3, 0x38, 0x3c, 0x86, 0xef, 0x89, 0x3e,
  0xd3, 0xe0, 0x53, 0xbe, 0xd4, 0x28, 0x07, 0x3e, 0xa6, 0xb2, 0xcc, 0x3c,
  0xea, 0x60, 0x05, 0xbe, 0x05, 0x3b, 0x42, 0x3e, 0xec, 0x79, 0xf4, 0xbd,
  0x15, 0x57, 0xfc, 0xbd, 0x30, 0x9b, 0x3b, 0xbd, 0xab, 0x92, 0x43, 0xbe,
  0x0e, 0x2e, 0x19, 0x3e, 0x38, 0xa8, 0x37, 0xbc, 0x82, 0x9e, 0x3a, 0xbd,
  0x45, 0x17, 0x96, 0x3d, 0x06, 0x70, 0xea, 0xbd, 0x3d, 0xd2, 0x40, 0x3d,
  0xc0, 0x1c, 0x39, 0x3e, 0x91, 0x2e, 0x3a, 0xbe, 0x4b, 0x75, 0x01, 0xbd,
  0x7b, 0x9d, 0x29, 0xbe, 0xf4, 0x7a, 0x3d, 0xbd, 0x13, 0xac, 0x23, 0x3d,
  0xfb, 0x9c, 0x0d, 0xbe, 0x1c, 0xa3, 0x11, 0x3e, 0x03, 0x00, 0xff, 0x3b,
  0xc0, 0xc9, 0xd5, 0x3d, 0x32, 0x76, 0x28, 0xbd, 0xe0, 0x7d, 0xcd, 0x3c,
  0x08, 0xbe, 0x0f, 0xbe, 0xff, 0xa2, 0x2b, 0xbd, 0x2d, 0xa0, 0x2e, 0x3f,
  0x7d, 0x8e, 0xdd, 0xbd, 0x2b, 0x89, 0xba, 0x3c, 0x26, 0xae, 0xaa, 0x3e,
  0x97, 0x44, 0x83, 0xbc, 0xa5, 0x55, 0xea, 0x3d, 0xcc, 0x2a, 0x8a, 0xbe,
  0x88, 0x93, 0x8a, 0xbd, 0xc1, 0x93, 0x76, 0xbc, 0x64, 0x2d, 0x69, 0x3d,
  0xd9, 0xfc, 0x87, 0x3d, 0xaa, 0xa5, 0x1b, 0xbc, 0x94, 0x50, 0x97, 0x3c,
  0x42, 0x53, 0xba, 0xbc, 0x1d, 0x79, 0xb1, 0x3e, 0x3c, 0x5c, 0xb8, 0xbd,
  0x26, 0x1d, 0x5a, 0xbe, 0x81, 0x21, 0xf5, 0x3d, 0xd5, 0xfb, 0x87, 0x3d,
  0x52, 0xcb, 0x37, 0x3e, 0xcf, 0xf3, 0x55, 0x3c, 0xa5, 0x4e, 0x7c, 0xbd,
  0x04, 0x7c, 0x00, 0x3d, 0xe8, 0xc2, 0xce, 0xbc, 0x20, 0x94, 0xe7, 0xbd,
  0xe8, 0x10, 0x51, 0xbe, 0xdb, 0xa3, 0x5d, 0xbd, 0xc6, 0x85, 0x7c, 0xbe,
  0xb8, 0x6f, 0x0c, 0xbe, 0x39, 0x92, 0x8c, 0xbe, 0x68, 0xb6, 0xe4, 0xbe,
  0x63, 0xc0, 0x8d, 0xbe, 0xec, 0xce, 0x03, 0xbf, 0x19, 0xf1, 0xc0, 0xbe,
  0xb3, 0xbb, 0xbb, 0xbd, 0xdd, 0xb2, 0xec, 0xbe, 0x1a, 0x52, 0xfb, 0xbd,
  0x08, 0x20, 0x80, 0xbd, 0x55, 0x40, 0x4e, 0xbf, 0x69, 0x37, 0x92, 0xbe,
  0x31, 0x33, 0xc9, 0x3e, 0x8d, 0xe1, 0x4c, 0x3e, 0xb6, 0x5b, 0x05, 0x3e,
  0x11, 0x37, 0x46, 0xbd, 0xed, 0x30, 0x90, 0xbd, 0x05, 0x3f, 0x0e, 0x3f,
  0x45, 0xd5, 0x52, 0x3d, 0x7f, 0xb2, 0x37, 0xbe, 0x2a, 0x9d, 0x7d, 0x3e,
  0x49, 0x35, 0x34, 0x3e, 0x61, 0x85, 0x85, 0xbd, 0xa8, 0xa3, 0x1d, 0x3e,
  0xbe, 0x73, 0x8a, 0xbe, 0xb2, 0xf7, 0x23, 0xbe, 0x8e, 0xa0, 0xa0, 0xbb,
  0x00, 0xdc, 0x99, 0xbe, 0xf6, 0xf6, 0xba, 0xbe, 0xcd, 0x08, 0x88, 0xbe,
  0x11, 0xb3, 0x07, 0xbe, 0xdb, 0x2b, 0x77, 0xbd, 0x26, 0x2f, 0x24, 0xbd,
  0x8a, 0x72, 0x68, 0xbd, 0x55, 0x14, 0x62, 0xbd, 0x04, 0xba, 0x3a, 0xbc,
  0x87, 0xa5, 0x03, 0x3c, 0x03, 0x83, 0xe2, 0xbc, 0x92, 0x3f, 0x23, 0xbe,
  0xa2, 0x5d, 0x80, 0x3e, 0x48, 0x0f, 0xa4, 0xbd, 0xdd, 0x76, 0xe3, 0x3c,
  0x13, 0x90, 0x19, 0x3e, 0xa8, 0x6c, 0x55, 0xbc, 0x00, 0x65, 0x9c, 0x3e,
  0x93, 0x91, 0x85, 0x3d, 0x26, 0x6f, 0x18, 0xbe, 0x41, 0xc9, 0x18, 0x3e,
  0xf9, 0x8b, 0x96, 0xbd, 0x97, 0x7c, 0x92, 0x3e, 0x2a, 0x3d, 0x71, 0xbd,
  0x29, 0x53, 0x97, 0x3e, 0x4f, 0x84, 0xa3, 0x3c, 0x5c, 0x9e, 0xc9, 0x3e,
  0x4b, 0xf7, 0x26, 0xbe, 0xba, 0x2b, 0x3c, 0x3c, 0xa1, 0xf1, 0x1c, 0xbe,
  0x16, 0x18, 0xe9, 0x3c, 0xcf, 0xed, 0xc5, 0xbc, 0xaf, 0x05, 0x49, 0xbb,
  0x2a, 0xb2, 0x47, 0x3d, 0x91, 0x93, 0x81, 0x3e, 0x1d, 0xbc, 0x0a, 0xbf,
  0x30, 0x16, 0xba, 0x3e, 0x9c, 0x72, 0x4c, 0x3d, 0xe5, 0x96, 0x0a, 0x3c,
  0xe0, 0x6c, 0x93, 0x3e, 0x96, 0xa3, 0xaa, 0x3c, 0x43, 0x2a, 0x7d, 0x3e,
  0xd0, 0xc1, 0x98, 0x3e, 0x74, 0xba, 0x64, 0xbf, 0x6e, 0x32, 0x51, 0xbd,
  0x51, 0x93, 0xc2, 0xbd, 0x58, 0x08, 0x85, 0x3e, 0x26, 0x70, 0xff, 0xbd,
  0x22, 0x5c, 0x54, 0xbc, 0xda, 0x49, 0x81, 0x3c, 0x27, 0xa2, 0x43, 0x3e,
  0x1d, 0x08, 0x88, 0xbe, 0xd9, 0x2f, 0x02, 0xbf, 0xaa, 0x54, 0x3a, 0xbd,
  0xf0, 0x49, 0x09, 0xbe, 0xa2, 0x98, 0x9c, 0xbe, 0x92, 0x11, 0xd9, 0xbc,
  0x51, 0xe0, 0x56, 0x3d, 0x0c, 0xf6, 0xd9, 0x3c, 0xc9, 0x03, 0x3d, 0xbd,
  0x5f, 0x41, 0xa5, 0xbd, 0xae, 0xf8, 0x0e, 0xbe, 0x5b, 0xd4, 0xfb, 0xbd,
  0xa6, 0xf0, 0x9c, 0xbe, 0x43, 0x09, 0xbc, 0xbd, 0x1e, 0xb7, 0xaa, 0x3e,
  0x31, 0x86, 0x7a, 0xbe, 0xf1, 0x2f, 0x28, 0xbe, 0x9c, 0x64, 0xd1, 0x3d,
  0x17, 0x4f, 0xc4, 0xbd, 0x48, 0x72, 0x06, 0x3e, 0xbd, 0x46, 0x85, 0xbe,
  0x2a, 0xc6, 0x76, 0xbe, 0x64, 0x04, 0x70, 0xbe, 0x61, 0x87, 0x31, 0x3e,
  0x52, 0x99, 0x88, 0x3e, 0x11, 0xdd, 0x42, 0x3e, 0x06, 0x4f, 0x63, 0xbe,
  0xc6, 0xc0, 0xe4, 0x3d, 0x3c, 0x82, 0x6b, 0x3d, 0xe0, 0xa0, 0xba, 0xbe,
  0x6e, 0x9f, 0xfd, 0x3d, 0x2c, 0x7e, 0x79, 0xbc, 0x01, 0x7a, 0xb9, 0x3b,
  0x83, 0x9e, 0xb4, 0x3e, 0x35, 0x16, 0xa5, 0xbd, 0x2d, 0xfa, 0xf1, 0xbe,
  0xef, 0x2e, 0xf8, 0x3d, 0xac, 0x3d, 0x92, 0xbd, 0x16, 0x1a, 0x51, 0xbe,
  0x65, 0xf6, 0xca, 0xbd, 0x28, 0xd8, 0xe1, 0xbd, 0x34, 0x01, 0x85, 0xbe,
  0xac, 0x51, 0x17, 0xbe, 0x28, 0xcc, 0x3d, 0xbe, 0x45, 0x9b, 0x56, 0xbe,
  0xf7, 0xeb, 0xa6, 0x3c, 0xeb, 0x76, 0x04, 0xbe, 0x88, 0x94, 0x0d, 0xbe,
  0x42, 0xf0, 0x49, 0xbe, 0x32, 0x80, 0x2e, 0x3e, 0xd8, 0x79, 0xaa, 0x3d,
  0xba, 0x5d, 0xab, 0xbc, 0x8c, 0x4a, 0xba, 0x3c, 0x89, 0xe9, 0x5a, 0x3d,
  0x99, 0xf1, 0x82, 0x3e, 0xbf, 0x86, 0x0c, 0x3f, 0xee, 0xd0, 0x6f, 0xbe,
  0x3a, 0xf4, 0x5d, 0xbe, 0xee, 0xed, 0xb7, 0x3d, 0x85, 0x88, 0xe2, 0x3d,
  0x4a, 0x93, 0x44, 0xbe, 0xff, 0x8f, 0xd5, 0x3d, 0x07, 0x81, 0x5d, 0xbc,
  0x5f, 0xb8, 0x2b, 0xbe, 0x1d, 0x40, 0x4f, 0xbe, 0xf1, 0x38, 0x5f, 0xbd,
  0xf0, 0x39, 0xc8, 0xbc, 0xdb, 0xc4, 0xf7, 0xbd, 0xbe, 0x22, 0x05, 0xbd,
  0x99, 0x56, 0x14, 0xbc, 0xed, 0x1b, 0xbc, 0xbd, 0xa4, 0xff, 0x58, 0x3d,
  0xfc, 0x37, 0x0a, 0xbe, 0xe7, 0x0f, 0xa5, 0x3e, 0x10, 0xd4, 0xa3, 0xbd,
  0x62, 0xe5, 0xc4, 0xbd, 0xbf, 0x77, 0x25, 0xbe, 0x8d, 0x5d, 0x03, 0xbe,
  0x6c, 0xb5, 0x26, 0x3e, 0xbe, 0x05, 0x14, 0xbc, 0x84, 0xb3, 0x70, 0x3e,
  0x12, 0xa9, 0xb9, 0x3e, 0x3f, 0x73, 0x94, 0xbe, 0xd1, 0x86, 0xe8, 0x3e,
  0x47, 0x82, 0xf7, 0x3d, 0x56, 0x71, 0xbb, 0xbe, 0x8a, 0x73, 0x38, 0x3e,
  0xe5, 0x31, 0x3a, 0x3d, 0xa1, 0x71, 0x4e, 0xbd, 0x01, 0xb8, 0x2b, 0x3e,
  0x86, 0xb3, 0x7d, 0xbe, 0xb8, 0x3c, 0xa7, 0xbe, 0xdc, 0xd5, 0x73, 0x3e,
  0x1b, 0x0d, 0x28, 0xbe, 0x3a, 0xf0, 0xc8, 0xbe, 0x17, 0x66, 0xb1, 0xbe,
  0xc8, 0x0e, 0x49, 0xbc, 0xc4, 0xa0, 0xc1, 0xbc, 0xde, 0x5b, 0xcf, 0xbc,
  0x4e, 0x48, 0x12, 0xbe, 0x69, 0x99, 0xbe, 0x3d, 0x6b, 0xf4, 0x81, 0xbc,
  0x2d, 0x86, 0xa9, 0xbd, 0xa5, 0x42, 0x1b, 0xbd, 0xf8, 0xd8, 0x09, 0xbe,
  0x4c, 0x2e, 0x2f, 0xbf, 0xce, 0xf3, 0xc8, 0xbd, 0x5c, 0xc4, 0x72, 0xbe,
  0x00, 0x49, 0x6d, 0xbe, 0xdb, 0x23, 0x99, 0x3c, 0x80, 0x79, 0xdd, 0x3d,
  0x86, 0x7c, 0x26, 0xbe, 0xf0, 0x6b, 0xe0, 0xbb, 0x41, 0xd4, 0x9e, 0x3e,
  0x43, 0x8b, 0x0e, 0xbe, 0x02, 0xf3, 0x81, 0xbe, 0x54, 0x90, 0x98, 0xbe,
  0x31, 0x01, 0x1d, 0xbe, 0x5c, 0xc4, 0x46, 0x3e, 0xf9, 0xcb, 0x83, 0x3d,
  0x39, 0x61, 0x98, 0xbc, 0xa1, 0x6f, 0xb7, 0x3e, 0xaa, 0x0c, 0xbd, 0xbd,
  0xe3, 0x43, 0x05, 0x3e, 0x2b, 0xc4, 0xf6, 0xbd, 0xa5, 0xce, 0x1a, 0xbe,
  0x7b, 0x01, 0x45, 0xbe, 0x48, 0x4b, 0x4f, 0xbe, 0x0b, 0x86, 0x93, 0x3d,
  0xb9, 0x0f, 0x8c, 0x3d, 0x19, 0xb3, 0x8b, 0xbd, 0x21, 0x0b, 0x28, 0xbe,
  0x10, 0x43, 0xa1, 0x3d, 0x2e, 0xaf, 0x75, 0xbd, 0x95, 0x74, 0x3d, 0xbe,
  0xc6, 0x1c, 0x20, 0xbe, 0x91, 0x6b, 0xfc, 0xbc, 0xd6, 0xdb, 0x85, 0x3d,
  0xee, 0xe6, 0x0a, 0x3e, 0x9f, 0x2f, 0x0c, 0x3e, 0x63, 0x1b, 0x36, 0x3f,
  0x10, 0x6f, 0xd0, 0x3d, 0x48, 0xf2, 0x82, 0x3d, 0x7c, 0x03, 0x2a, 0x3d,
  0x96, 0xa5, 0x13, 0xbe, 0x18, 0x37, 0xdb, 0xbe, 0x31, 0x77, 0xf2, 0xbe,
  0x62, 0x5b, 0x49, 0xbd, 0x67, 0x1a, 0xd9, 0x3d, 0x7a, 0x79, 0x3a, 0xbe,
  0x98, 0x08, 0x9c, 0xbe, 0xdb, 0xf2, 0x33, 0xbe, 0x1a, 0x7b, 0xa4, 0x3c,
  0x78, 0x02, 0x54, 0xbe, 0xd9, 0xb1, 0xd2, 0xbe, 0x33, 0xb2, 0xb1, 0xbe,
  0x02, 0xb8, 0x3f, 0x3c, 0x00, 0x3e, 0xcc, 0xbe, 0xc2, 0x89, 0xbf, 0xbd,
  0xa6, 0x4a, 0xe7, 0xbd, 0xe5, 0x89, 0x8f, 0xbd, 0x3f, 0x08, 0x9c, 0xbd,
  0x44, 0xe8, 0xa8, 0xbe, 0x8a, 0xca, 0xd4, 0xbd, 0xfa, 0x6f, 0xc7, 0xbd,
  0xcc, 0xc9, 0x60, 0x3b, 0x81, 0xae, 0x1d, 0xbe, 0x02, 0xcb, 0xb9, 0xbe,
  0x5d, 0x5c, 0x3d, 0x3e, 0xf7, 0xd3, 0x4c, 0xbe, 0x0e, 0x8f, 0x80, 0xbe,
  0x7f, 0x35, 0xa3, 0x3d, 0xf8, 0xac, 0x53, 0xbe, 0xc9, 0x61, 0x10, 0xbe,
  0xf0, 0xfb, 0xc9, 0xbd, 0x56, 0xe9, 0x08, 0xbe, 0xf4, 0x56, 0xb1, 0x3d,
  0xc2, 0x90, 0x98, 0xbd, 0x71, 0x01, 0xd9, 0x3d, 0x36, 0x3c, 0xa5, 0xbd,
  0x60, 0x60, 0x3b, 0xbe, 0xa9, 0x65, 0x45, 0xbe, 0xc9, 0xf3, 0xef, 0xbd,
  0xf7, 0x6e, 0x16, 0x3e, 0x80, 0xba, 0x02, 0xbf, 0x4e, 0xca, 0x4e, 0x3e,
  0x6c, 0xbf, 0xd9, 0xbb, 0xf1, 0x64, 0x79, 0x3b, 0x41, 0x78, 0x11, 0xbe,
  0xfd, 0xb0, 0x3c, 0xbe, 0x99, 0x93, 0x12, 0xbe, 0x21, 0x31, 0x05, 0x3d,
  0x1e, 0xb7, 0x3c, 0xbc, 0xdb, 0xba, 0x7f, 0xbd, 0x65, 0x87, 0x5d, 0xbe,
  0xec, 0x07, 0x8b, 0xbe, 0xda, 0x94, 0x55, 0xbd, 0x67, 0x75, 0x4b, 0xbd,
  0xb9, 0x53, 0xc3, 0x3d, 0xf9, 0xfb, 0x87, 0x3e, 0xf0, 0x20, 0x85, 0xbe,
  0x34, 0xfc, 0xf7, 0xbd, 0x43, 0x34, 0xe9, 0xbd, 0xf7, 0x7f, 0x8e, 0xbe,
  0x01, 0x90, 0x77, 0xbe, 0x09, 0x3b, 0x73, 0xbe, 0xae, 0x57, 0x3c, 0xbe,
  0x5d, 0x49, 0x30, 0xbe, 0xef, 0x6f, 0xa3, 0x3c, 0x0e, 0x22, 0x94, 0x3e,
  0xba, 0x54, 0xbc, 0xbd, 0x6f, 0xaa, 0xc3, 0xbe, 0x0d, 0x69, 0xcb, 0xbd,
  0xaf, 0x6d, 0xad, 0xbd, 0x86, 0xa5, 0x46, 0xbe, 0x81, 0x45, 0xb6, 0xbe,
  0x4d, 0xf0, 0x61, 0xbe, 0xf2, 0xb0, 0xc1, 0x3e, 0xac, 0xc0, 0x6f, 0xbb,
  0xcd, 0x56, 0xf4, 0xbe, 0x7f, 0xed, 0xb2, 0x3d, 0xb9, 0x86, 0xa3, 0xbd,
  0x10, 0x1e, 0x57, 0xbe, 0xfc, 0xc0, 0xe4, 0xbd, 0x94, 0x3b, 0x89, 0xbe,
  0xa8, 0xdf, 0xb5, 0x3e, 0x2c, 0xac, 0x63, 0x3d, 0x1c, 0xbe, 0xad, 0x3e,
  0xaf, 0xd3, 0x1c, 0x3e, 0xf3, 0x78, 0x94, 0xbd, 0xcc, 0x09, 0x4e, 0xbd,
  0xff, 0xd5, 0x95, 0x3e, 0x04, 0x5f, 0xc8, 0xbe, 0xaf, 0x3e, 0x2d, 0xbf,
  0x62, 0x97, 0x85, 0xbd, 0x5c, 0xc8, 0x9e, 0x3e, 0x5b, 0xe0, 0x50, 0xbe,
  0x2c, 0xaa, 0x2e, 0x3e, 0x3b, 0xe1, 0x0d, 0xbd, 0xa8, 0xfc, 0x81, 0x3d,
  0x70, 0x8c, 0x5b, 0xbb, 0xea, 0xc8, 0x1e, 0xbf, 0xbc, 0x9f, 0xb6, 0xbd,
  0xc8, 0xe7, 0x63, 0x3e, 0x2d, 0xcf, 0xf6, 0xbe, 0xc4, 0x7c, 0x88, 0xbe,
  0xf3, 0xee, 0x96, 0xbe, 0xb9, 0xc0, 0x3b, 0x3d, 0x13, 0xf0, 0x57, 0x3d,
  0x36, 0xc4, 0x03, 0x3c, 0x9b, 0x43, 0xd2, 0xbd, 0x95, 0xd6, 0xea, 0xbc,
  0x46, 0x39, 0x68, 0xbe, 0x9d, 0x77, 0x97, 0xbe, 0x10, 0x1d, 0x39, 0x3f,
  0xed, 0x95, 0x00, 0x3d, 0xdd, 0x10, 0x19, 0xbd, 0x78, 0x0f, 0xb5, 0xbd,
  0x94, 0x4d, 0x45, 0xbe, 0x57, 0x02, 0xe8, 0xbd, 0x22, 0xcd, 0x51, 0x3e,
  0x92, 0x89, 0x6b, 0xbe, 0xf9, 0x07, 0x6b, 0xbe, 0x98, 0x89, 0xdf, 0xbd,
  0x11, 0x76, 0x0a, 0xbb, 0xdd, 0x9f, 0x27, 0x3e, 0x7f, 0x2e, 0xf3, 0xbc,
  0xe1, 0x1a, 0x1f, 0xbe, 0x36, 0xbf, 0x84, 0xbc, 0x58, 0xf6, 0x96, 0xba,
  0xbb, 0x9d, 0x6d, 0xbe, 0x50, 0x91, 0x59, 0xbe, 0xc7, 0xab, 0x08, 0x3e,
  0x5e, 0xd6, 0x25, 0x3e, 0x88, 0x09, 0x02, 0xbf, 0xcb, 0x9b, 0x9d, 0x3e,
  0xe9, 0xfc, 0xae, 0x3e, 0x06, 0x94, 0xaa, 0xbe, 0xad, 0x90, 0xd8, 0x3e,
  0xa0, 0xb3, 0x19, 0x3e, 0x1a, 0x61, 0x15, 0xbe, 0x1e, 0x62, 0xeb, 0x3d,
  0x10, 0x09, 0x0c, 0xbf, 0x7c, 0x11, 0xd8, 0x3d, 0x92, 0x41, 0x01, 0x3e,
  0x43, 0x0e, 0xae, 0xbe, 0x92, 0xc7, 0xba, 0xbd, 0x7e, 0xf4, 0xbb, 0xbd,
  0x6c, 0x17, 0x09, 0xbe, 0x68, 0xd3, 0xf4, 0x3c, 0xf5, 0xdc, 0xa4, 0xbe,
  0x66, 0x5e, 0x98, 0x3e, 0x50, 0x32, 0xc7, 0x3e, 0xcd, 0x74, 0xe3, 0xbd,
  0xdd, 0x48, 0x88, 0x3d, 0xfe, 0xd6, 0x8e, 0xbc, 0x26, 0x21, 0x36, 0x3b,
  0x98, 0x06, 0xa3, 0x3d, 0x6d, 0xaf, 0x98, 0xbe, 0x2f, 0x8b, 0x13, 0x3e,
  0xd5, 0x4f, 0x0c, 0x3e, 0xbc, 0x25, 0xdc, 0xbd, 0xe2, 0x57, 0x87, 0x3e,
  0xd9, 0xbf, 0xdc, 0x3d, 0xeb, 0xdb, 0x9b, 0xbd, 0x47, 0xc3, 0xed, 0xbe,
  0xed, 0x6a, 0x33, 0xbe, 0x66, 0x1a, 0xb1, 0xbe, 0xe0, 0x51, 0xda, 0xbe,
  0x0b, 0x48, 0x0d, 0xbf, 0xcb, 0x81, 0x16, 0xbf, 0xfc, 0x62, 0x00, 0xbf,
  0xb9, 0xe5, 0x8e, 0x3b, 0x04, 0x87, 0x07, 0xbe, 0xcd, 0x7b, 0xcf, 0xbd,
  0x71, 0xba, 0xb8, 0x3d, 0x3b, 0xab, 0x90, 0xbe, 0xed, 0xd7, 0x29, 0xbe,
  0xf6, 0xa4, 0xc8, 0x3d, 0xea, 0x2b, 0x44, 0x3c, 0x9e, 0x15, 0x8f, 0x3d,
  0x4d, 0xfa, 0x22, 0xbd, 0x62, 0x5d, 0x36, 0xbd, 0x2b, 0x74, 0xab, 0x3e,
  0x89, 0x79, 0x12, 0xbe, 0xf3, 0x87, 0x60, 0xbe, 0x72, 0x21, 0xac, 0x3d,
  0x9d, 0x24, 0xe9, 0x3e, 0x96, 0x81, 0xae, 0x3d, 0xa9, 0x5e, 0xa4, 0x3d,
  0xee, 0x37, 0x45, 0xbe, 0xc3, 0x13, 0x60, 0x3e, 0xb8, 0x3f, 0xd3, 0x3d,
  0xbc, 0x42, 0x12, 0xbe, 0x3f, 0xb5, 0xba, 0x3e, 0x51, 0xed, 0x25, 0xbd,
  0x0a, 0xdf, 0xff, 0xff, 0x10, 0x00, 0x00, 0x00, 0x08, 0x00, 0x00, 0x00,
  0x1c, 0x00, 0x00, 0x00, 0x38, 0x00, 0x00, 0x00, 0x04, 0x00, 0x00, 0x00,
  0x10, 0x00, 0x00, 0x00, 0x04, 0x00, 0x00, 0x00, 0x01, 0x00, 0x00, 0x00,
  0x08, 0x00, 0x00, 0x00, 0x1a, 0x00, 0x00, 0x00, 0x73, 0x65, 0x71, 0x75,
  0x65, 0x6e, 0x74, 0x69, 0x61, 0x6c, 0x2f, 0x63, 0x6f, 0x6e, 0x76, 0x32,
  0x64, 0x5f, 0x31, 0x2f, 0x43, 0x6f, 0x6e, 0x76, 0x32, 0x44, 0x00, 0x00,
  0x04, 0xdf, 0xff, 0xff, 0xfa, 0xdf, 0xff, 0xff, 0x04, 0x00, 0x00, 0x00,
  0x80, 0x01, 0x00, 0x00, 0x98, 0x01, 0x6f, 0x3e, 0x01, 0x19, 0x3a, 0xbe,
  0x02, 0x6f, 0xe0, 0xbd, 0xc9, 0x1d, 0x9d, 0x3e, 0xd1, 0xe3, 0x4c, 0x3e,
  0xa9, 0xee, 0x02, 0xbe, 0x36, 0x1f, 0xeb, 0x3d, 0x51, 0x2a, 0xd6, 0x3d,
  0x71, 0x2d, 0x6a, 0x3e, 0xa7, 0xa5, 0x3a, 0xbe, 0x29, 0x15, 0xbb, 0x3d,
  0x17, 0xb5, 0xba, 0xbd, 0x55, 0xec, 0x84, 0x3d, 0x77, 0x8a, 0x7d, 0xbb,
  0x06, 0x75, 0x96, 0xbc, 0xae, 0x10, 0x03, 0x3f, 0x78, 0x84, 0x4a, 0x3e,
  0xc8, 0x86, 0x9d, 0xbd, 0xff, 0x72, 0x67, 0x3c, 0x6e, 0x7a, 0x30, 0xbd,
  0xd7, 0xf3, 0x3b, 0x3d, 0xe0, 0xf2, 0x0b, 0xbf, 0xb1, 0x56, 0x12, 0xbe,
  0x07, 0x14, 0x1d, 0x3d, 0x1c, 0xd1, 0xd6, 0xbd, 0xd8, 0xa5, 0x0f, 0x3d,
  0x24, 0xaf, 0x9b, 0x3d, 0xf1, 0x34, 0x96, 0xbd, 0x90, 0x94, 0x8d, 0x3d,
  0x2a, 0x4b, 0x97, 0xbb, 0x26, 0xb3, 0x0f, 0xbd, 0x52, 0x53, 0x9d, 0x3d,
  0x11, 0x4e, 0x6e, 0xbd, 0xd3, 0x81, 0x18, 0xbd, 0x09, 0xbf, 0x04, 0x3e,
  0x78, 0x28, 0x8d, 0xbc, 0xf5, 0x87, 0xd4, 0xbc, 0x8f, 0x75, 0x9d, 0xbd,
  0x7a, 0x4b, 0xc1, 0xbe, 0x21, 0x72, 0x8e, 0xbe, 0xaa, 0x3b, 0x01, 0x3e,
  0x4b, 0x75, 0x91, 0xbe, 0x7b, 0xef, 0x8a, 0x3e, 0xe3, 0xfd, 0x82, 0x3c,
  0x59, 0xb4, 0x04, 0x3f, 0x5e, 0x87, 0x01, 0x3c, 0x43, 0x80, 0x18, 0x3d,
  0x2c, 0x2d, 0x25, 0x3c, 0xc0, 0xf1, 0xe2, 0x3d, 0xf9, 0x42, 0xb2, 0xbd,
  0x64, 0x95, 0x6e, 0x3d, 0xfa, 0x73, 0x66, 0x3e, 0x17, 0xbe, 0xd7, 0x3e,
  0x33, 0x28, 0x12, 0xbe, 0x91, 0x82, 0x0d, 0xbe, 0x27, 0xa2, 0x13, 0xbe,
  0xc1, 0x90, 0x2f, 0x3e, 0x9b, 0x27, 0x46, 0xbe, 0x62, 0x97, 0x94, 0xbe,
  0xda, 0xdc, 0x9e, 0xbd, 0xa3, 0xd4, 0x72, 0x3c, 0xc9, 0xde, 0xa4, 0xbe,
  0x09, 0xb8, 0x5e, 0x3e, 0xfb, 0x87, 0xb7, 0xbd, 0x2b, 0xcf, 0x39, 0x3d,
  0xbc, 0x5e, 0x18, 0x3e, 0x56, 0xdc, 0xe6, 0xbc, 0xce, 0x03, 0x07, 0x3b,
  0x9b, 0x5d, 0x9f, 0xbc, 0x63, 0xa9, 0x3b, 0xbd, 0x26, 0xd7, 0xc5, 0x3c,
  0xf2, 0x11, 0x5b, 0x3c, 0x97, 0x7c, 0xc8, 0xbc, 0xe8, 0xe2, 0x96, 0xbc,
  0xb7, 0x18, 0x87, 0xbb, 0x56, 0xd2, 0x98, 0xbe, 0x16, 0xc0, 0xf4, 0xbe,
  0xf7, 0xb9, 0xa4, 0xbe, 0x07, 0x0e, 0x0f, 0x3e, 0x83, 0x94, 0x53, 0x3e,
  0x14, 0xb2, 0xfd, 0x3d, 0x5d, 0xe5, 0x64, 0x3e, 0xfc, 0x2b, 0x9e, 0x3e,
  0x95, 0x49, 0x62, 0x3e, 0xfb, 0x53, 0x0e, 0x3e, 0xc9, 0x42, 0x76, 0xbe,
  0x17, 0x73, 0x4c, 0x3d, 0x2c, 0xcc, 0x51, 0x3d, 0xad, 0x6f, 0xa4, 0xbe,
  0x8d, 0x68, 0x61, 0x3e, 0x2f, 0xcf, 0xb8, 0xbd, 0x81, 0xf4, 0x85, 0x3e,
  0xb6, 0x77, 0x27, 0xbe, 0x9a, 0x0d, 0x2e, 0xbd, 0x66, 0x54, 0x84, 0x3e,
  0x3a, 0x57, 0x16, 0x3e, 0xe2, 0xe0, 0xff, 0xff, 0x10, 0x00, 0x00, 0x00,
  0x07, 0x00, 0x00, 0x00, 0x1c, 0x00, 0x00, 0x00, 0x38, 0x00, 0x00, 0x00,
  0x04, 0x00, 0x00, 0x00, 0x08, 0x00, 0x00, 0x00, 0x04, 0x00, 0x00, 0x00,
  0x03, 0x00, 0x00, 0x00, 0x01, 0x00, 0x00, 0x00, 0x18, 0x00, 0x00, 0x00,
  0x73, 0x65, 0x71, 0x75, 0x65, 0x6e, 0x74, 0x69, 0x61, 0x6c, 0x2f, 0x63,
  0x6f, 0x6e, 0x76, 0x32, 0x64, 0x2f, 0x43, 0x6f, 0x6e, 0x76, 0x32, 0x44,
  0x00, 0x00, 0x00, 0x00, 0xdc, 0xe0, 0xff, 0xff, 0xd2, 0xe1, 0xff, 0xff,
  0x04, 0x00, 0x00, 0x00, 0xc0, 0x00, 0x00, 0x00, 0x6d, 0x06, 0x59, 0xbe,
  0x3a, 0x61, 0x1a, 0xbf, 0x1e, 0xa8, 0x3b, 0x3e, 0x73, 0xb4, 0x4c, 0xbd,
  0xa8, 0x26, 0xa0, 0xbe, 0x18, 0xb1, 0x30, 0xbe, 0xf2, 0x4a, 0xe3, 0xbc,
  0x0c, 0x9c, 0x0b, 0xbe, 0x55, 0x3c, 0xf2, 0xbe, 0xcb, 0x67, 0x8d, 0xbe,
  0xd2, 0xc5, 0xd0, 0xbc, 0xf9, 0xbb, 0x9a, 0x3e, 0xfc, 0x9c, 0x1e, 0x3e,
  0xac, 0x3e, 0x01, 0xbe, 0x94, 0xf0, 0x44, 0xbe, 0x18, 0x82, 0xaa, 0x3e,
  0xd2, 0x1e, 0xf6, 0xbd, 0x1b, 0x1d, 0xc2, 0x3e, 0x40, 0xee, 0x21, 0xbf,
  0x55, 0xfa, 0x05, 0x3d, 0x4d, 0x4f, 0xaf, 0xbe, 0xb6, 0x31, 0x54, 0xbe,
  0x3f, 0xc4, 0x90, 0xbb, 0xd5, 0x8a, 0xbf, 0xbd, 0x8a, 0x26, 0x28, 0x3e,
  0xe4, 0x13, 0x80, 0xbe, 0x8d, 0xcd, 0x24, 0x3d, 0xcf, 0xfb, 0xa2, 0x3e,
  0x5a, 0x23, 0x76, 0x3e, 0x34, 0x28, 0x2b, 0xbe, 0x5b, 0xff, 0x12, 0x3e,
  0x06, 0x9c, 0x9e, 0x3e, 0x4c, 0xeb, 0xda, 0xbd, 0x7e, 0x1d, 0xca, 0x3e,
  0x0c, 0xfd, 0xd4, 0xbe, 0x94, 0xce, 0x7f, 0xbd, 0x6d, 0x5e, 0xb7, 0xbe,
  0xa4, 0xdf, 0x73, 0xbe, 0x52, 0xe5, 0xbc, 0xbd, 0xa7, 0xdb, 0x2c, 0xbe,
  0x7e, 0x29, 0xae, 0xbe, 0x8c, 0xa5, 0xaf, 0xbe, 0x25, 0xa8, 0x87, 0x3d,
  0x3d, 0x7d, 0xb7, 0x3e, 0x9d, 0x6a, 0x3e, 0x3e, 0xfb, 0xa3, 0x37, 0xbe,
  0xda, 0xf7, 0xc6, 0xbd, 0x33, 0x73, 0x82, 0x3e, 0xfa, 0xe1, 0xff, 0xff,
  0x10, 0x00, 0x00, 0x00, 0x06, 0x00, 0x00, 0x00, 0x14, 0x00, 0x00, 0x00,
  0x30, 0x00, 0x00, 0x00, 0x02, 0x00, 0x00, 0x00, 0x03, 0x00, 0x00, 0x00,
  0x10, 0x00, 0x00, 0x00, 0x19, 0x00, 0x00, 0x00, 0x73, 0x65, 0x71, 0x75,
  0x65, 0x6e, 0x74, 0x69, 0x61, 0x6c, 0x2f, 0x64, 0x65, 0x6e, 0x73, 0x65,
  0x5f, 0x31, 0x2f, 0x4d, 0x61, 0x74, 0x4d, 0x75, 0x6c, 0x00, 0x00, 0x00,
  0xec, 0xe1, 0xff, 0xff, 0xe2, 0xe2, 0xff, 0xff, 0x04, 0x00, 0x00, 0x00,
  0x00, 0x1c, 0x00, 0x00, 0x35, 0x30, 0x91, 0x3d, 0x78, 0xf9, 0xc4, 0x3d,
  0xe7, 0xbd, 0xf9, 0xbd, 0x3c, 0xcc, 0x82, 0xbe, 0xdb, 0xd6, 0x0f, 0xbe,
  0xc3, 0x9e, 0x8b, 0xbe, 0x01, 0x79, 0xd8, 0xbe, 0xa2, 0xa6, 0x9a, 0xbe,
  0x60, 0x05, 0x0a, 0xbf, 0x81, 0x13, 0x0e, 0xbc, 0xa4, 0xa4, 0xf8, 0x3d,
  0xda, 0x60, 0x3d, 0xbe, 0x97, 0xfb, 0x9a, 0xbe, 0x3e, 0xc8, 0x31, 0xbf,
  0x89, 0xf6, 0x69, 0x3e, 0x40, 0x0d, 0x7a, 0x3c, 0x18, 0xf1, 0x45, 0x3d,
  0x4d, 0x02, 0x81, 0x3d, 0xfd, 0x2e, 0x4d, 0x3d, 0x50, 0x9a, 0x60, 0x3e,
  0x97, 0xd9, 0x06, 0x3e, 0x27, 0x59, 0xdd, 0xbd, 0xbe, 0x03, 0x90, 0x3e,
  0x83, 0x31, 0xd6, 0xbe, 0xa2, 0xd4, 0x2c, 0xbd, 0x4b, 0xe3, 0x60, 0x3d,
  0xe3, 0x3c, 0xfb, 0x3d, 0xd1, 0xf3, 0x60, 0xbd, 0x95, 0x5a, 0xa1, 0xbe,
  0x7f, 0x6b, 0x14, 0xbe, 0x17, 0x72, 0x82, 0x3e, 0xbe, 0xb1, 0x29, 0x3e,
  0xc4, 0xa8, 0x82, 0x3a, 0xf9, 0x78, 0x89, 0x3d, 0x26, 0x66, 0x28, 0x3e,
  0xd4, 0xec, 0xbd, 0x3e, 0x2b, 0xd3, 0x16, 0xbd, 0x9c, 0xb7, 0x6b, 0xbe,
  0x5a, 0x5e, 0x9f, 0x3d, 0x47, 0x34, 0x0a, 0xbe, 0x37, 0x1e, 0x4c, 0x3d,
  0x95, 0x78, 0xa7, 0x3d, 0xf0, 0x06, 0x73, 0xbe, 0xac, 0x29, 0x55, 0xbe,
  0x4f, 0x19, 0x13, 0xbd, 0x3f, 0x58, 0xff, 0x3d, 0x0a, 0x52, 0x7d, 0x3e,
  0x92, 0xab, 0xc9, 0xbd, 0x48, 0xfe, 0xe0, 0xbc, 0x4a, 0x54, 0xe2, 0xbc,
  0x58, 0x6b, 0xef, 0x3c, 0x26, 0x41, 0x1e, 0x3e, 0x9b, 0xba, 0x02, 0xbd,
  0xd1, 0xaa, 0x16, 0xbe, 0xac, 0x99, 0xd6, 0xbd, 0x6b, 0x66, 0x68, 0xbd,
  0xb9, 0xe3, 0x86, 0x3e, 0x4b, 0xf5, 0x81, 0x3d, 0x3c, 0x47, 0x80, 0x3e,
  0xd5, 0x2b, 0x7a, 0xba, 0x7c, 0xf4, 0x6e, 0xbd, 0x52, 0xf4, 0x39, 0xbd,
  0xde, 0x52, 0xd8, 0x3e, 0x42, 0xc2, 0xdc, 0x3c, 0x72, 0xa9, 0x14, 0x3e,
  0x5f, 0xe9, 0x60, 0x3d, 0x5b, 0x35, 0xdf, 0x3c, 0x55, 0x96, 0xa7, 0xbd,
  0xfb, 0x44, 0x9c, 0x3d, 0x57, 0x37, 0x06, 0xbe, 0xbc, 0x95, 0x77, 0xbd,
  0xbe, 0x20, 0xd2, 0xbe, 0x2a, 0xce, 0x8d, 0x3d, 0x6c, 0xfe, 0x4c, 0x3c,
  0x0a, 0x71, 0xfb, 0x3c, 0xf2, 0xfd, 0x8a, 0xba, 0x2d, 0xf4, 0x53, 0xbe,
  0xb3, 0x6e, 0xe3, 0xbd, 0x15, 0xe6, 0x9a, 0x3e, 0xdd, 0xc8, 0x42, 0xbe,
  0x9b, 0xd9, 0x14, 0x3e, 0x0e, 0xa8, 0xf1, 0x3d, 0x65, 0x33, 0x09, 0x3d,
  0x6f, 0x5f, 0xc2, 0xbd, 0x8f, 0x7c, 0x45, 0xbd, 0x68, 0x44, 0x85, 0xbe,
  0xb7, 0xde, 0xd3, 0x3c, 0x11, 0x9a, 0x6f, 0xbe, 0xb1, 0x71, 0x21, 0x3e,
  0x3d, 0xcb, 0xfa, 0xbd, 0x55, 0x06, 0xde, 0xbd, 0x19, 0x38, 0x80, 0x3d,
  0x04, 0xa2, 0x3f, 0xbe, 0x6d, 0x52, 0x05, 0xbe, 0x9d, 0x4a, 0x77, 0x3e,
  0x89, 0xfe, 0x35, 0xbe, 0xcc, 0x1c, 0xac, 0xbc, 0xd2, 0xff, 0xd0, 0x3b,
  0x3f, 0x0d, 0xac, 0x3c, 0xce, 0x76, 0xd7, 0xbe, 0x5d, 0x9b, 0xde, 0xbd,
  0x80, 0x4f, 0x49, 0xbe, 0xda, 0x71, 0x55, 0x3d, 0x81, 0xc7, 0x1c, 0xbe,
  0x16, 0xb6, 0xdd, 0xbc, 0xea, 0x73, 0xc5, 0xbc, 0x5d, 0x3a, 0xda, 0xbe,
  0xd9, 0x13, 0xee, 0x3e, 0x1b, 0x98, 0x45, 0xbe, 0xfc, 0xf5, 0x76, 0x3d,
  0x36, 0x70, 0x11, 0x3e, 0xad, 0x1b, 0x41, 0xbe, 0xd0, 0xe4, 0xbf, 0xbc,
  0x50, 0x3a, 0x80, 0x3d, 0xaf, 0x7c, 0xa7, 0x3c, 0xe7, 0x37, 0x9c, 0xbb,
  0xa0, 0x8a, 0x85, 0xbe, 0x78, 0xfd, 0x83, 0xbd, 0xbd, 0x98, 0xa6, 0x3d,
  0x8c, 0xa5, 0x9f, 0xbd, 0x50, 0x1a, 0x8e, 0xbe, 0xd5, 0x69, 0x6b, 0xbd,
  0xad, 0xd1, 0x92, 0xbd, 0xed, 0x8c, 0xbc, 0xbc, 0x63, 0xbe, 0xb3, 0xbd,
  0x98, 0xb4, 0x1e, 0xbe, 0x3d, 0x6c, 0x2e, 0x3d, 0xfc, 0x77, 0x13, 0x3e,
  0x2f, 0xd5, 0x78, 0xbd, 0x40, 0x9d, 0xd3, 0xbd, 0xa1, 0x5d, 0xdc, 0xbd,
  0xd2, 0x67, 0x67, 0xbd, 0x1d, 0x91, 0x9c, 0x3d, 0x2c, 0xd9, 0x0e, 0x3e,
  0x42, 0x30, 0x9c, 0x3b, 0x21, 0x8c, 0xcf, 0xbe, 0x77, 0xf2, 0x4d, 0xbc,
  0x51, 0xd3, 0xcd, 0xbc, 0x77, 0x0c, 0x61, 0x3c, 0x48, 0x36, 0x5d, 0xbe,
  0x21, 0x98, 0x2e, 0xbe, 0x00, 0xd2, 0x50, 0xbd, 0xf5, 0x82, 0x72, 0x3e,
  0xb2, 0x86, 0x6b, 0x3e, 0x8a, 0x42, 0xca, 0x3d, 0x31, 0xb7, 0x81, 0xbe,
  0xc1, 0xcd, 0x83, 0x3d, 0xd8, 0xd0, 0x1f, 0xbe, 0x71, 0x88, 0xd2, 0x3b,
  0x92, 0x7d, 0x07, 0xbe, 0xf9, 0x92, 0x43, 0x3d, 0x7c, 0x75, 0x70, 0xbd,
  0x81, 0x9b, 0xca, 0x3d, 0x36, 0x42, 0x94, 0xbe, 0x63, 0x8d, 0x03, 0xbe,
  0xb1, 0x11, 0x8b, 0xbe, 0x35, 0x8c, 0xe9, 0x3d, 0x80, 0xe3, 0xa5, 0xbc,
  0xeb, 0x7c, 0x93, 0x3e, 0xeb, 0xe1, 0x28, 0xbd, 0xde, 0x1e, 0x9d, 0xbd,
  0xf5, 0x5d, 0x4b, 0xbe, 0xc8, 0x65, 0x18, 0x3c, 0xfd, 0xa6, 0x4b, 0x3e,
  0x1d, 0x4a, 0x23, 0xbe, 0x7a, 0x9c, 0x44, 0xbe, 0xa7, 0x0a, 0x99, 0x3e,
  0xc5, 0x93, 0x04, 0xbc, 0x46, 0x03, 0x79, 0x3e, 0x4b, 0x20, 0x5e, 0xbe,
  0x8d, 0x93, 0x39, 0xbe, 0xe2, 0xb8, 0x85, 0x3c, 0x63, 0x0a, 0xd6, 0xbd,
  0xe0, 0x14, 0x05, 0x3e, 0xce, 0xb1, 0x8e, 0x3e, 0xc8, 0x29, 0xa3, 0xbd,
  0x6c, 0xe9, 0x35, 0x3e, 0x16, 0xde, 0xeb, 0xbd, 0xb4, 0xb5, 0x35, 0xbe,
  0x45, 0xec, 0x5c, 0xbe, 0xdd, 0x71, 0xad, 0xbb, 0x94, 0xf6, 0x0a, 0xbe,
  0x2f, 0xb0, 0xb1, 0x3d, 0x3c, 0x01, 0xc6, 0x3c, 0xd2, 0x78, 0xd2, 0xbc,
  0xf6, 0xd2, 0x7e, 0xbc, 0xbd, 0xe8, 0xf4, 0xbc, 0x8c, 0x03, 0x5e, 0xbe,
  0x9d, 0xcb, 0xd0, 0x3d, 0x0a, 0xf9, 0xfa, 0x3c, 0x52, 0x45, 0x9d, 0x3d,
  0xd1, 0xdf, 0xb6, 0xbd, 0x6b, 0xe6, 0x15, 0x3e, 0x02, 0xd2, 0x67, 0xbe,
  0x5e, 0x4a, 0x39, 0xbe, 0x70, 0x83, 0x01, 0xbe, 0x0c, 0x49, 0xa0, 0xbd,
  0x79, 0x83, 0x02, 0xbe, 0x04, 0x14, 0x86, 0x3d, 0x7f, 0x82, 0x8b, 0xbe,
  0xb1, 0x9f, 0x7f, 0xbe, 0x49, 0xf9, 0x0b, 0xbe, 0xed, 0xc5, 0x42, 0x3d,
  0x8d, 0x07, 0xc8, 0x3d, 0x3e, 0xa7, 0x24, 0xbd, 0x89, 0xca, 0x47, 0xbd,
  0x9f, 0x27, 0x13, 0x3e, 0x18, 0x0f, 0xb3, 0x3d, 0x42, 0x07, 0x9c, 0x3b,
  0x75, 0xe8, 0xc6, 0x3c, 0xea, 0x59, 0x6a, 0xbe, 0x7b, 0x92, 0xbd, 0xbd,
  0x17, 0x0e, 0x3c, 0xbe, 0xca, 0x69, 0x9d, 0xbd, 0xcc, 0x8e, 0x72, 0xbd,
  0x82, 0x26, 0x99, 0xbd, 0x57, 0xe4, 0x36, 0xbe, 0x1c, 0xd2, 0x84, 0xbe,
  0x8f, 0x37, 0xe9, 0xbc, 0x68, 0xb3, 0xc6, 0x3e, 0x50, 0x7c, 0xdb, 0x3c,
  0x72, 0x97, 0x43, 0x3d, 0xd4, 0x5b, 0x2c, 0x3e, 0x10, 0xcb, 0x87, 0x3d,
  0xc9, 0x77, 0xd5, 0xbc, 0x21, 0x27, 0xa8, 0xbd, 0xad, 0xfe, 0x26, 0xbe,
  0xdc, 0xcf, 0xaa, 0x3d, 0xf2, 0xfc, 0x8b, 0xbe, 0x9d, 0xeb, 0xf3, 0xbc,
  0x9a, 0x62, 0x2a, 0x3d, 0xe7, 0x97, 0x1f, 0x3d, 0x36, 0x98, 0x22, 0x3d,
  0xd8, 0x5e, 0x71, 0xbe, 0xac, 0x0c, 0xd0, 0x3e, 0xb9, 0x2b, 0x80, 0x3e,
  0x91, 0x91, 0xdb, 0xbd, 0x0e, 0xbd, 0x83, 0xbc, 0xbb, 0xf9, 0xea, 0x3d,
  0xef, 0xe7, 0x42, 0xbe, 0xd8, 0x5d, 0x8c, 0xbc, 0xcd, 0x2b, 0x0d, 0xbe,
  0x2d, 0x77, 0x8f, 0xbe, 0x02, 0x46, 0x86, 0xbd, 0xee, 0x91, 0x4f, 0x3d,
  0xce, 0xb1, 0x55, 0xbe, 0x4d, 0x57, 0xf5, 0xbd, 0xc2, 0xe0, 0xdb, 0x3c,
  0x4a, 0xbf, 0x49, 0x3e, 0xfb, 0xfa, 0x52, 0xbd, 0x15, 0x8f, 0xd7, 0x3e,
  0x3d, 0xd8, 0x07, 0x3e, 0x1b, 0xb4, 0x34, 0xbd, 0xf2, 0xb2, 0x03, 0xbc,
  0xa5, 0x29, 0x2f, 0xbe, 0x9b, 0xfb, 0x73, 0x3d, 0xf0, 0xab, 0x13, 0x3e,
  0x70, 0x57, 0x89, 0xbe, 0xc0, 0x7a, 0x43, 0xbd, 0xc4, 0xdf, 0xc9, 0xbd,
  0xc3, 0x55, 0xe8, 0xbc, 0x1e, 0xe3, 0xcc, 0xbd, 0x34, 0x52, 0xdf, 0xbd,
  0x0c, 0xf2, 0xed, 0x3d, 0x95, 0xdf, 0x55, 0xbd, 0x79, 0x1e, 0x86, 0xbd,
  0x36, 0x62, 0xd2, 0x3d, 0x9d, 0xf6, 0x91, 0x3e, 0xec, 0x33, 0x0d, 0xbd,
  0x28, 0x59, 0xb7, 0x3e, 0xbc, 0x43, 0xf8, 0xbd, 0xfd, 0x9e, 0x49, 0xbe,
  0x98, 0x0a, 0x3a, 0x3e, 0x43, 0x82, 0x00, 0xbe, 0xdc, 0x45, 0x83, 0xbe,
  0xa1, 0xba, 0xc0, 0xbd, 0x03, 0x43, 0x4a, 0xbe, 0x7b, 0x62, 0xd7, 0x3d,
  0xb3, 0xd3, 0x0a, 0xbd, 0x79, 0xf6, 0xc0, 0x3b, 0x30, 0xbb, 0xca, 0x3c,
  0xe5, 0xff, 0xe2, 0xbd, 0x61, 0x4a, 0xf8, 0x3b, 0x5a, 0x13, 0xfb, 0x3d,
  0xb9, 0xf4, 0x39, 0xbe, 0x58, 0x94, 0xb1, 0x3e, 0x47, 0x5d, 0xa5, 0x3c,
  0x13, 0xd3, 0x3c, 0xbe, 0xdf, 0x3b, 0x2c, 0x3e, 0x22, 0x68, 0x76, 0xbd,
  0xe5, 0x60, 0x6e, 0x3c, 0x95, 0x23, 0x1b, 0xbe, 0x44, 0x9f, 0xf0, 0xbd,
  0xb7, 0x5d, 0xaf, 0x3d, 0x37, 0x80, 0xdb, 0x3d, 0xb1, 0x4a, 0xb1, 0xbd,
  0xe7, 0xd4, 0x36, 0xbd, 0x26, 0xa7, 0x3d, 0xbe, 0xfe, 0x0e, 0x89, 0x3e,
  0xfd, 0x53, 0x6c, 0x3e, 0x90, 0x10, 0x31, 0x3d, 0x21, 0x0b, 0x87, 0x3e,
  0x36, 0x77, 0x35, 0xbe, 0xa5, 0xef, 0x42, 0xbe, 0xdb, 0xca, 0xa8, 0xbd,
  0x73, 0xa1, 0x4b, 0xbd, 0xe4, 0x65, 0x3b, 0xbe, 0x9b, 0xc1, 0x0a, 0x3e,
  0x0e, 0x21, 0xa8, 0xbd, 0x08, 0x63, 0x8f, 0x3c, 0xcf, 0x01, 0x38, 0xbe,
  0xa0, 0x62, 0x33, 0x3e, 0xe3, 0x9d, 0x1c, 0x3e, 0xc0, 0xbc, 0xd6, 0xbc,
  0xdd, 0x47, 0x96, 0x3e, 0x5f, 0x66, 0x7c, 0x3d, 0x83, 0x71, 0x90, 0xbc,
  0x4b, 0x8f, 0x22, 0x3d, 0x20, 0xb7, 0x8e, 0x3d, 0x76, 0x90, 0xef, 0xbd,
  0x4b, 0x54, 0xb8, 0xbd, 0x57, 0xf7, 0x40, 0xbd, 0x31, 0x36, 0x9e, 0xbe,
  0x9d, 0x0d, 0x94, 0x3c, 0xdc, 0x37, 0x79, 0xbe, 0xb4, 0x9e, 0x84, 0xbe,
  0x98, 0x3c, 0x94, 0xbb, 0x0c, 0x6e, 0xfb, 0xbd, 0x1a, 0x19, 0xec, 0xbd,
  0x95, 0x2e, 0x8a, 0xbe, 0xba, 0x25, 0x9c, 0x3e, 0x46, 0x72, 0x6b, 0x3e,
  0x14, 0xa3, 0x87, 0xbd, 0xd9, 0x75, 0x5f, 0x3e, 0x10, 0x3a, 0xac, 0x3d,
  0xf6, 0xae, 0x04, 0x3d, 0x32, 0x36, 0x55, 0xbd, 0x38, 0x7f, 0x3d, 0xbe,
  0xc9, 0xf1, 0x59, 0xbe, 0x93, 0xe0, 0xb4, 0xbe, 0x92, 0x8f, 0x71, 0xbf,
  0x61, 0x65, 0x9a, 0xbe, 0x72, 0xa8, 0xa4, 0x3c, 0xc1, 0x75, 0x55, 0xbf,
  0x2a, 0x09, 0x99, 0xbe, 0x61, 0x0c, 0x7f, 0xbe, 0xd9, 0xc3, 0xd6, 0xbe,
  0xcb, 0xf4, 0x0b, 0x3d, 0x5a, 0x73, 0x51, 0xbf, 0xc2, 0x4d, 0xe9, 0xbe,
  0x25, 0xd0, 0x29, 0xbe, 0x24, 0x5f, 0xe3, 0xbd, 0x48, 0x53, 0x56, 0x3d,
  0x06, 0xf6, 0x02, 0xbe, 0xd6, 0xa2, 0x98, 0xbd, 0xe1, 0xb7, 0x7a, 0xbe,
  0xa5, 0x6d, 0x59, 0xbf, 0x70, 0xa1, 0x97, 0xbe, 0x80, 0x3f, 0xb7, 0xbd,
  0x03, 0x38, 0x74, 0xbf, 0x87, 0xf5, 0xa4, 0xbd, 0xc3, 0x63, 0x5b, 0x3d,
  0xf5, 0x6d, 0x9d, 0xbe, 0x7e, 0xec, 0x57, 0x3e, 0xdb, 0x23, 0x07, 0xbf,
  0x56, 0xd0, 0x8b, 0xbd, 0x15, 0xbe, 0xd8, 0xbd, 0x58, 0xb0, 0x23, 0xbe,
  0xef, 0xc8, 0x04, 0x3d, 0x16, 0xf1, 0x8f, 0xbe, 0xdc, 0x10, 0xb7, 0xbd,
  0x6f, 0x7f, 0x0f, 0xbe, 0x7d, 0x18, 0x4e, 0xbf, 0xe8, 0x9c, 0xbc, 0xbe,
  0xbd, 0x4e, 0x0c, 0xbd, 0xcf, 0xe4, 0x4c, 0xbf, 0x76, 0x87, 0xc5, 0xbd,
  0x29, 0x9f, 0xf0, 0xbd, 0xa2, 0x76, 0xc5, 0xbe, 0x39, 0xcc, 0x77, 0x3d,
  0x9d, 0x90, 0xc2, 0xbe, 0x06, 0xaa, 0x40, 0xbe, 0xff, 0x86, 0x87, 0xbe,
  0xfc, 0x01, 0xa5, 0xbe, 0xc8, 0x69, 0xb2, 0xbd, 0x05, 0xd3, 0x30, 0xbe,
  0x1c, 0xd5, 0xce, 0xbd, 0x85, 0x94, 0x53, 0xbd, 0x05, 0x91, 0x59, 0xbf,
  0xf0, 0xdc, 0x00, 0xbe, 0xb4, 0xb8, 0x88, 0xbe, 0x0b, 0x15, 0x0c, 0xbf,
  0x9d, 0x89, 0x2c, 0xbd, 0x7f, 0x75, 0x45, 0xbe, 0xee, 0xe0, 0x72, 0xbd,
  0xad, 0xd6, 0x20, 0xbe, 0x3b, 0xe6, 0xca, 0xbe, 0x24, 0xbc, 0xac, 0xbe,
  0xf3, 0xf1, 0x21, 0xbe, 0xce, 0xf7, 0xb3, 0xbd, 0x21, 0x0a, 0x66, 0x3d,
  0xe4, 0x55, 0x82, 0xbd, 0x9c, 0x81, 0x3b, 0x3d, 0x56, 0x4d, 0x02, 0x3f,
  0x1e, 0x84, 0x74, 0xbe, 0x84, 0xb9, 0xac, 0xbe, 0xf0, 0x61, 0x6a, 0x3d,
  0x63, 0xc3, 0x4e, 0xbf, 0xba, 0x82, 0xdb, 0xbc, 0x9c, 0x6f, 0x01, 0x3c,
  0x1e, 0x50, 0x3a, 0xbe, 0xb7, 0x3b, 0x1c, 0x3e, 0x84, 0x36, 0xb1, 0x3c,
  0xf5, 0x82, 0xae, 0x3e, 0x9b, 0x2b, 0x28, 0x3d, 0x32, 0x26, 0x86, 0x3e,
  0x07, 0x59, 0xd7, 0x3d, 0x26, 0x57, 0xa1, 0xbd, 0x1c, 0x0e, 0x90, 0x3d,
  0x26, 0xb9, 0xdc, 0x3e, 0x4d, 0x6b, 0x8f, 0xbd, 0x2c, 0xe5, 0x4d, 0x3d,
  0xda, 0x55, 0x38, 0x3e, 0xcc, 0x4b, 0x64, 0xbe, 0x19, 0x0c, 0xe4, 0x3e,
  0xd9, 0x4a, 0x70, 0x3d, 0x07, 0x51, 0x1a, 0xbe, 0xa8, 0x37, 0xca, 0xbd,
  0x45, 0x7f, 0x5b, 0x3a, 0x72, 0xc9, 0xe1, 0x3e, 0x24, 0x49, 0xe6, 0x3c,
  0xb3, 0x8d, 0x15, 0x3e, 0x6e, 0xed, 0x98, 0x3d, 0x6b, 0x42, 0xde, 0x3d,
  0x6e, 0xa0, 0xe5, 0x3d, 0x5a, 0xc9, 0xef, 0x3d, 0xa1, 0x3a, 0x49, 0x3c,
  0xf3, 0xa7, 0xaf, 0xbd, 0xa5, 0x2a, 0x1d, 0xbb, 0xfc, 0xf4, 0x27, 0xbc,
  0xc6, 0xf9, 0xb5, 0x3c, 0x3b, 0x07, 0x7e, 0x3d, 0x8f, 0x4d, 0x8a, 0x3b,
  0xfe, 0x2e, 0x2e, 0xbd, 0x17, 0xd4, 0x99, 0x3d, 0xe2, 0x91, 0x71, 0x3e,
  0xfb, 0xb6, 0x65, 0x3d, 0xb2, 0x56, 0x37, 0x3e, 0x76, 0xe0, 0x17, 0xbf,
  0xa6, 0x3c, 0xbe, 0xbd, 0xf9, 0x87, 0x44, 0x3d, 0xd4, 0xfa, 0x08, 0xbe,
  0xc0, 0x10, 0xea, 0x3d, 0xe1, 0xb1, 0x26, 0x3e, 0x10, 0xef, 0xbb, 0xbe,
  0xe1, 0x92, 0x54, 0x3e, 0xa1, 0xff, 0xc5, 0xbe, 0x91, 0x52, 0x04, 0xbe,
  0x55, 0xb2, 0x98, 0x3d, 0x7f, 0xf2, 0x2d, 0xbc, 0x9e, 0xba, 0x16, 0x3d,
  0xe1, 0x69, 0x04, 0xbe, 0x70, 0x9c, 0xf2, 0xbe, 0xed, 0x80, 0x22, 0x3d,
  0xdd, 0x08, 0x30, 0xbe, 0x55, 0x95, 0x2e, 0xbe, 0xf2, 0x3a, 0xd7, 0x3b,
  0x74, 0x11, 0x8e, 0x3e, 0xec, 0xf8, 0x50, 0x3d, 0x93, 0xb5, 0x0b, 0x3e,
  0x6b, 0xf7, 0x72, 0xbc, 0x76, 0xfa, 0x09, 0x3e, 0x5a, 0x88, 0x28, 0x3d,
  0x3c, 0x44, 0x96, 0x3c, 0xc6, 0x77, 0xf8, 0x3d, 0xbd, 0x0e, 0x81, 0x3d,
  0x2f, 0x09, 0x16, 0x3e, 0xf5, 0x89, 0x85, 0xbb, 0xf5, 0x97, 0x69, 0xbe,
  0xe1, 0x8e, 0x78, 0xbd, 0xba, 0xe5, 0x54, 0xbd, 0x1b, 0x0f, 0x25, 0xbe,
  0x33, 0x22, 0x39, 0x3e, 0x7b, 0xbd, 0x76, 0xbd, 0xa3, 0x89, 0x69, 0x3c,
  0xcd, 0x6a, 0x10, 0x3e, 0xe3, 0x21, 0xad, 0x3d, 0x8b, 0x1d, 0x32, 0xbe,
  0xba, 0x4e, 0x05, 0x3e, 0xd6, 0xd9, 0x1f, 0x3e, 0xc4, 0x68, 0x53, 0xbe,
  0xcf, 0xf4, 0x7c, 0xbe, 0xbd, 0x3f, 0xc0, 0x3e, 0xdb, 0x29, 0x7b, 0xbe,
  0x3d, 0x8b, 0x90, 0xbe, 0x26, 0x42, 0x9f, 0xbe, 0x20, 0x56, 0x33, 0x3e,
  0xba, 0x4f, 0x53, 0xbd, 0x0e, 0xf5, 0x80, 0x3d, 0xd9, 0x83, 0x8d, 0xbd,
  0x4d, 0xb1, 0xdb, 0xbd, 0xb2, 0x7a, 0x07, 0x3e, 0xd3, 0xb2, 0x86, 0x3e,
  0xd5, 0xda, 0xa9, 0xbd, 0x88, 0x3b, 0xc9, 0x3d, 0x24, 0x6c, 0x2f, 0x3e,
  0xaa, 0x1a, 0x0d, 0xbe, 0x48, 0xc2, 0x47, 0xbe, 0x6e, 0x2b, 0x02, 0x3f,
  0xcf, 0x00, 0x84, 0x3d, 0x79, 0xc3, 0x94, 0xbe, 0xec, 0x18, 0x4d, 0xbe,
  0x36, 0x98, 0x8c, 0x3d, 0x3d, 0x77, 0xda, 0x3c, 0xc1, 0x56, 0x8a, 0x3d,
  0x3e, 0x05, 0x49, 0xbe, 0x04, 0xe9, 0x4d, 0xbd, 0x76, 0x70, 0x80, 0x3e,
  0x12, 0x2e, 0xdf, 0x3d, 0xef, 0xdc, 0xef, 0xbd, 0x9f, 0x34, 0xc5, 0xb9,
  0xaa, 0xd9, 0x19, 0x3e, 0xa3, 0x48, 0x79, 0xbe, 0x6d, 0x7a, 0xe9, 0x3d,
  0xc5, 0xca, 0xd0, 0x3e, 0x53, 0xf7, 0xe1, 0xbe, 0xd6, 0x46, 0x4b, 0xbe,
  0x42, 0xb6, 0x3a, 0xbe, 0x7c, 0x37, 0x2d, 0xbb, 0xc7, 0x9d, 0xc3, 0x3d,
  0x23, 0xc0, 0xe2, 0xbd, 0x7b, 0x56, 0x3f, 0x3c, 0x01, 0xfa, 0x03, 0xbe,
  0x68, 0x96, 0xa4, 0xbc, 0x08, 0x6c, 0x45, 0x3e, 0xa1, 0xfe, 0x12, 0xbd,
  0xa3, 0x48, 0xa6, 0x3c, 0xd4, 0x35, 0x6b, 0x3d, 0xfb, 0xee, 0x3d, 0xbe,
  0x90, 0x38, 0x4e, 0xbe, 0x89, 0xbe, 0x2f, 0xbc, 0x64, 0x9d, 0x61, 0x3d,
  0x88, 0xd7, 0xe5, 0xbe, 0x31, 0x46, 0xb2, 0xbd, 0xfd, 0x46, 0x9c, 0xbd,
  0xae, 0x3b, 0x0f, 0x3e, 0xbc, 0x5a, 0x41, 0xbe, 0xe4, 0x3b, 0xdd, 0xbd,
  0x71, 0x19, 0x03, 0xbe, 0x10, 0x87, 0x3b, 0xbd, 0xaa, 0xca, 0xee, 0x3c,
  0x7e, 0xa8, 0x13, 0xbe, 0x8a, 0x92, 0x76, 0xbe, 0x1d, 0x7a, 0xe7, 0xbd,
  0xd2, 0x43, 0xd6, 0x3d, 0x0a, 0xac, 0xa0, 0x3c, 0xe6, 0x0a, 0x45, 0x3e,
  0xff, 0x77, 0x7c, 0x3d, 0x7e, 0x1b, 0x60, 0xbe, 0x9b, 0x88, 0x2a, 0xbe,
  0x17, 0x2d, 0xb5, 0xbe, 0x2f, 0x3d, 0xb0, 0xbd, 0xf6, 0x8d, 0xf4, 0xbd,
  0x0d, 0xc0, 0x68, 0x3e, 0x82, 0xc4, 0x1b, 0x3e, 0x23, 0xc6, 0x2f, 0x3e,
  0x7f, 0xc6, 0x9f, 0xbd, 0xdb, 0x50, 0x02, 0x3e, 0x33, 0x44, 0x2d, 0xbe,
  0xce, 0x70, 0x39, 0xbe, 0xd5, 0x35, 0x0e, 0x40, 0x91, 0xe4, 0xb5, 0x3f,
  0x4c, 0x46, 0x1c, 0x3e, 0x71, 0xa6, 0xb3, 0x3d, 0xf0, 0x26, 0xe8, 0xbe,
  0xbd, 0x53, 0xbf, 0xbd, 0x44, 0x20, 0x24, 0xbe, 0xad, 0x70, 0xeb, 0xbd,
  0x00, 0xe9, 0xdd, 0x3d, 0xfc, 0xe7, 0x55, 0x3d, 0x28, 0x4c, 0x9c, 0xbe,
  0x7a, 0x71, 0x12, 0x3d, 0x32, 0xa7, 0x79, 0x3c, 0x87, 0x29, 0xb0, 0x3d,
  0xb2, 0xc2, 0x91, 0x3e, 0x06, 0x5e, 0xb1, 0x3c, 0x0f, 0x76, 0x55, 0x40,
  0x84, 0x7f, 0xc7, 0x3f, 0xd9, 0x20, 0xc6, 0xbd, 0x5c, 0x24, 0x7e, 0x3f,
  0x2e, 0x7f, 0xd1, 0xbe, 0xb7, 0x53, 0x16, 0xbe, 0x58, 0x11, 0xf2, 0x3d,
  0xe6, 0x3f, 0xde, 0xbd, 0x65, 0xf1, 0x5f, 0x3d, 0x23, 0xd1, 0xa2, 0xbc,
  0x46, 0xe0, 0x2f, 0xbd, 0x0d, 0x96, 0x86, 0xbe, 0x65, 0x18, 0x8a, 0x3c,
  0x4e, 0x79, 0xc3, 0xbe, 0xad, 0x42, 0xc6, 0x3e, 0x5f, 0x88, 0x94, 0x3e,
  0xd1, 0x5b, 0x58, 0x40, 0x8d, 0x7f, 0x8f, 0x3f, 0xf6, 0x87, 0xf8, 0x3e,
  0x1f, 0xca, 0x33, 0x3f, 0x1b, 0x73, 0x00, 0xbf, 0x6c, 0x2a, 0xa6, 0x3d,
  0xe7, 0x53, 0x42, 0xbe, 0x61, 0x31, 0x51, 0x3c, 0xcc, 0xa0, 0xcf, 0x3d,
  0xa6, 0x3c, 0x88, 0xbd, 0x1e, 0x0a, 0xb2, 0x3e, 0xfb, 0x94, 0x2c, 0x3e,
  0xb8, 0x5d, 0x4c, 0x3e, 0x42, 0x96, 0x1c, 0x3e, 0x88, 0x95, 0x43, 0x3e,
  0xa9, 0x33, 0x8a, 0x3d, 0x72, 0x75, 0x6e, 0x40, 0xbd, 0x34, 0x4b, 0x3f,
  0xfc, 0xd4, 0xf4, 0x3e, 0x9a, 0x7a, 0xfb, 0x3f, 0x20, 0x39, 0xeb, 0xbe,
  0xa5, 0xb8, 0xb1, 0x3e, 0xef, 0x9b, 0xaa, 0xbe, 0xd6, 0xe2, 0x4a, 0x3d,
  0xe9, 0x1a, 0x27, 0xbe, 0xa1, 0x8d, 0x45, 0x3c, 0xaf, 0x80, 0x1a, 0xbc,
  0x07, 0x7d, 0xb9, 0x3e, 0xa0, 0xe3, 0x13, 0xbd, 0xcb, 0xba, 0x91, 0x3e,
  0xb6, 0x81, 0x00, 0x3e, 0x2e, 0x45, 0x9b, 0xbe, 0x34, 0x61, 0x56, 0x40,
  0xad, 0x43, 0x05, 0x40, 0x34, 0xc3, 0xae, 0x3e, 0x4a, 0x22, 0x56, 0x3f,
  0xf5, 0x03, 0x02, 0xbf, 0x6a, 0x85, 0x42, 0xbe, 0x7f, 0x9d, 0x1a, 0x3d,
  0xe2, 0xda, 0xcd, 0xbd, 0x3b, 0x04, 0x1c, 0x3e, 0x96, 0x5a, 0x2e, 0xbe,
  0x89, 0xaa, 0x62, 0xbe, 0xc6, 0xa7, 0x3e, 0x3e, 0x4e, 0x5b, 0x94, 0xbe,
  0x55, 0x7a, 0x07, 0xbe, 0x95, 0x48, 0x43, 0x3d, 0x84, 0x76, 0x70, 0x3b,
  0xfa, 0x6e, 0x2e, 0x40, 0xe1, 0xd8, 0xfa, 0x3f, 0x31, 0xda, 0x06, 0xbf,
  0xdc, 0xdc, 0x4a, 0x3e, 0xa6, 0xdb, 0xdd, 0xbe, 0xa2, 0x01, 0x1a, 0xbe,
  0x9b, 0xa3, 0x00, 0xbc, 0xfc, 0x62, 0x01, 0xbd, 0x53, 0xf3, 0xc2, 0xbd,
  0xa5, 0x1a, 0x09, 0xbe, 0x38, 0xe1, 0x47, 0xbe, 0x8e, 0xf5, 0x98, 0xbd,
  0xc0, 0x74, 0x21, 0xbd, 0xfc, 0x6a, 0x8b, 0xbe, 0x7b, 0xf7, 0x82, 0x3d,
  0x86, 0xcd, 0xfe, 0x3d, 0x44, 0x22, 0x45, 0x40, 0x37, 0x4f, 0xde, 0xbc,
  0x96, 0x12, 0x73, 0x3e, 0xa9, 0x3a, 0x5f, 0xbe, 0xc8, 0xb5, 0xd8, 0xbd,
  0x9e, 0xc3, 0xe6, 0xbc, 0x53, 0xa3, 0x8a, 0x3e, 0xf1, 0x1b, 0x83, 0xbe,
  0xa1, 0x74, 0x2b, 0x3d, 0x90, 0x6d, 0x77, 0x3e, 0xb6, 0x49, 0xb9, 0xbc,
  0xaf, 0x39, 0x63, 0xbd, 0x9b, 0x2c, 0xbf, 0x3c, 0xe4, 0xf4, 0x00, 0xbe,
  0x77, 0xe4, 0x11, 0x3e, 0x0a, 0x40, 0x58, 0x3e, 0xaf, 0x9b, 0x15, 0xbe,
  0xba, 0x59, 0xf2, 0x3d, 0x53, 0xa9, 0x72, 0xbc, 0xd6, 0xf9, 0x9b, 0x3e,
  0x99, 0x05, 0x38, 0x3e, 0x56, 0x8a, 0x75, 0xbd, 0x4d, 0x5c, 0x4f, 0xbe,
  0x11, 0x52, 0x88, 0xbd, 0x8d, 0x06, 0xee, 0x3d, 0x2c, 0x75, 0xa9, 0x3e,
  0xed, 0x0b, 0xf5, 0x3d, 0x77, 0xbc, 0xc9, 0x3c, 0x29, 0x2d, 0x02, 0x3d,
  0xd4, 0x6f, 0xfb, 0xbd, 0xee, 0x06, 0x92, 0x3e, 0x7f, 0x49, 0xf4, 0xbd,
  0x08, 0x8b, 0xba, 0xbb, 0x89, 0x64, 0x8e, 0x3c, 0x9f, 0xac, 0xce, 0x3c,
  0xb4, 0x30, 0x88, 0x3d, 0x43, 0x5b, 0xcd, 0xbc, 0x70, 0x01, 0x39, 0xbe,
  0x29, 0x33, 0xb3, 0xbe, 0x9d, 0x70, 0x29, 0x3d, 0xdb, 0x00, 0xc3, 0xbe,
  0x54, 0xc8, 0x16, 0xbe, 0x2e, 0x02, 0xde, 0xbd, 0x27, 0x6b, 0x02, 0x3d,
  0x63, 0x88, 0x0e, 0xbe, 0xd8, 0xce, 0x31, 0x3e, 0xbf, 0x02, 0x80, 0xbd,
  0xa5, 0xd7, 0x0a, 0xbf, 0x9f, 0x34, 0xe4, 0xbd, 0x60, 0xb1, 0x35, 0xbe,
  0x7e, 0x4e, 0xa9, 0xbe, 0x1e, 0xf9, 0xb6, 0xbd, 0x94, 0x90, 0xd9, 0xbe,
  0xee, 0x31, 0x8e, 0xbd, 0x3f, 0x9d, 0x48, 0xbe, 0xfe, 0xe7, 0xcc, 0xbc,
  0xdd, 0xcf, 0x36, 0xbf, 0xf3, 0xb2, 0xba, 0xbd, 0x83, 0x2c, 0xd5, 0xbd,
  0x2c, 0x5b, 0xdf, 0xbd, 0xdf, 0xd3, 0x94, 0xbd, 0x16, 0x85, 0x94, 0x3c,
  0xa0, 0x80, 0xef, 0xbe, 0xd9, 0x0c, 0x35, 0xbf, 0x50, 0xff, 0xb6, 0x3d,
  0x30, 0x2e, 0x78, 0xbd, 0x8b, 0x83, 0x01, 0xbf, 0x69, 0xe1, 0xc9, 0xbd,
  0x29, 0x53, 0x8e, 0xbd, 0x76, 0xcc, 0x45, 0x3e, 0x55, 0x32, 0xc3, 0xbe,
  0xd5, 0x7f, 0x49, 0xbd, 0xe8, 0xff, 0x94, 0xbe, 0x2a, 0x85, 0xe0, 0xbd,
  0x3b, 0x0c, 0xd1, 0x3d, 0x9b, 0xbc, 0x1d, 0xbe, 0xfd, 0x31, 0x35, 0xbe,
  0xd4, 0x92, 0x83, 0x3d, 0x8a, 0xde, 0x3e, 0xbd, 0x4b, 0xd4, 0x8e, 0xbe,
  0x27, 0x08, 0x6d, 0xbd, 0x12, 0x0e, 0x67, 0xbe, 0x9c, 0x36, 0x72, 0xbe,
  0xef, 0x82, 0x0f, 0x3e, 0xdd, 0x00, 0xda, 0xbd, 0x3a, 0x64, 0xb0, 0xbd,
  0xb8, 0x14, 0xc7, 0xbe, 0xe5, 0xb0, 0xe5, 0xbd, 0xbf, 0x41, 0x10, 0xbe,
  0xf0, 0x86, 0xcb, 0xbd, 0x95, 0x66, 0xed, 0xbd, 0x44, 0x84, 0x67, 0xbd,
  0xf0, 0xd9, 0xc8, 0xbd, 0x37, 0x6d, 0xb5, 0x3d, 0x6a, 0x61, 0xbd, 0xbe,
  0xd5, 0x97, 0x5d, 0xbe, 0xc4, 0x89, 0xc3, 0xbd, 0x6d, 0x33, 0x56, 0x3e,
  0xf1, 0x57, 0x57, 0xbe, 0x2e, 0xff, 0xa7, 0x3d, 0xc5, 0xa7, 0x9e, 0xbe,
  0xa4, 0x7c, 0x5a, 0x3d, 0x36, 0x98, 0xe5, 0xbe, 0x7d, 0x7f, 0xf4, 0xbd,
  0x89, 0xf9, 0xe1, 0xbe, 0x2f, 0x21, 0xd3, 0xbe, 0x21, 0xe4, 0x55, 0x3c,
  0x50, 0xed, 0x7a, 0xbd, 0x6a, 0xd4, 0x89, 0xbd, 0x44, 0x4e, 0x69, 0x3c,
  0xe5, 0xfa, 0x77, 0xbd, 0x6b, 0x96, 0x83, 0xbe, 0x5a, 0x22, 0x29, 0xbe,
  0xfb, 0x5b, 0xae, 0xbd, 0xce, 0xc3, 0x55, 0xbe, 0x22, 0x13, 0xae, 0x3c,
  0x01, 0x6c, 0x67, 0xbe, 0xc9, 0x5c, 0x3b, 0xbe, 0x76, 0x8d, 0xe5, 0x3c,
  0x89, 0x82, 0x29, 0xbe, 0x3d, 0x29, 0x90, 0x3d, 0x5f, 0x95, 0x87, 0x3d,
  0x61, 0x3a, 0xdd, 0xbd, 0x5c, 0x9c, 0xaa, 0xbd, 0x51, 0x8c, 0xa8, 0x3e,
  0x6b, 0x34, 0x2a, 0xbe, 0x29, 0x2e, 0x86, 0x3e, 0x4d, 0x8c, 0x1b, 0xbb,
  0xa7, 0x7a, 0x89, 0xbd, 0x19, 0xe8, 0x2d, 0x3e, 0xf0, 0x76, 0x3d, 0xbd,
  0x0f, 0x09, 0x79, 0x3e, 0x22, 0xfb, 0x7a, 0x3e, 0x30, 0x3a, 0x09, 0xbe,
  0x78, 0x04, 0x2d, 0xbe, 0xe2, 0x65, 0xa1, 0x3b, 0xa4, 0x56, 0x20, 0x3e,
  0x72, 0x10, 0xed, 0x3c, 0x47, 0x60, 0x81, 0xbc, 0x15, 0xfb, 0x10, 0x3d,
  0x2d, 0x72, 0x3f, 0x3e, 0x6d, 0x03, 0x01, 0x3d, 0x1f, 0x80, 0x04, 0x3e,
  0xe7, 0x26, 0x3a, 0xbe, 0x02, 0x33, 0x21, 0xbe, 0xfc, 0x0c, 0x9e, 0xbc,
  0xf9, 0x48, 0x98, 0x3e, 0xa8, 0x74, 0x75, 0x3c, 0xbe, 0x84, 0x0b, 0xbb,
  0x84, 0xe9, 0x13, 0xbf, 0x58, 0x9f, 0x67, 0xbe, 0x3b, 0xf3, 0x14, 0xbd,
  0xdf, 0xcb, 0xe3, 0xbd, 0x39, 0xdd, 0x6e, 0xbd, 0x02, 0xd3, 0x47, 0xbe,
  0xec, 0xbb, 0x42, 0x3b, 0xac, 0x28, 0x1f, 0xbe, 0x33, 0x4b, 0x24, 0x3e,
  0xf2, 0x3d, 0x36, 0x3d, 0xf8, 0xdb, 0xfa, 0xbe, 0x6e, 0x21, 0xa3, 0xbe,
  0x2e, 0x68, 0x14, 0x3e, 0xe2, 0xb1, 0xd1, 0xbe, 0xaf, 0xf6, 0x48, 0x3e,
  0xa2, 0x49, 0xf3, 0xbe, 0xf8, 0x45, 0x76, 0xbe, 0xc4, 0x6a, 0x82, 0xbd,
  0x6e, 0xe2, 0xf9, 0xbc, 0x04, 0x70, 0xa2, 0xbe, 0x3f, 0xf3, 0x08, 0x3d,
  0x84, 0x6c, 0x19, 0xbe, 0xe3, 0x83, 0xe4, 0xbe, 0xb5, 0x7e, 0x9a, 0xbe,
  0xcd, 0xe5, 0x00, 0x3e, 0xe5, 0x0d, 0xf9, 0xbe, 0xc8, 0x33, 0x01, 0xbf,
  0xd9, 0x48, 0x5f, 0xbe, 0x9c, 0xf7, 0x17, 0xbe, 0x19, 0xdf, 0xcb, 0xbe,
  0xf9, 0xd4, 0x64, 0xbe, 0x86, 0x6a, 0xbe, 0xbe, 0x82, 0x24, 0x10, 0xbe,
  0xe7, 0xe0, 0x78, 0x3d, 0x4a, 0x2d, 0x74, 0xbd, 0x3f, 0xb5, 0x8f, 0xbe,
  0x90, 0xf8, 0x9d, 0x3e, 0x67, 0xa0, 0x39, 0xbe, 0xe9, 0x06, 0xb0, 0xbe,
  0x39, 0xb4, 0xfd, 0x3c, 0xa0, 0xd9, 0x4e, 0xbd, 0xcf, 0x44, 0x43, 0xbe,
  0xdf, 0x63, 0x5c, 0xbe, 0x13, 0x0d, 0x84, 0xbe, 0x19, 0x6f, 0xfd, 0x3d,
  0x9b, 0x81, 0x47, 0xbe, 0x59, 0x17, 0x6b, 0xbd, 0x95, 0x5a, 0x3f, 0xbe,
  0x4e, 0x1c, 0xde, 0x3c, 0xc9, 0x4f, 0x94, 0xbd, 0x10, 0x4f, 0x07, 0xbd,
  0x43, 0x3e, 0x6f, 0xbd, 0x9c, 0xfa, 0x7e, 0x3e, 0x75, 0x64, 0x95, 0xbd,
  0x15, 0x7f, 0x48, 0xbe, 0x1a, 0x81, 0x90, 0x3e, 0x4a, 0xdd, 0x9b, 0xbd,
  0xec, 0x3a, 0xf9, 0x3d, 0xf5, 0x15, 0x19, 0x3d, 0xcb, 0xae, 0x9c, 0xbe,
  0xf8, 0x29, 0xaf, 0x3d, 0x70, 0x02, 0x8b, 0xbd, 0x5d, 0x72, 0x08, 0x3f,
  0xf5, 0x6a, 0x66, 0x3e, 0xa8, 0x40, 0x32, 0x3e, 0x38, 0x89, 0x12, 0x3e,
  0x48, 0xd4, 0x1d, 0x3e, 0x74, 0x6b, 0x14, 0xbd, 0x9e, 0x0c, 0xc5, 0x3e,
  0xe1, 0xdf, 0x7b, 0xbd, 0xd6, 0x91, 0x83, 0xbd, 0xdb, 0x94, 0x51, 0x3d,
  0x68, 0xba, 0x71, 0x3d, 0x7a, 0xe5, 0x86, 0x3c, 0x21, 0x98, 0xf7, 0x3d,
  0x9b, 0x19, 0x98, 0xbe, 0x98, 0xf3, 0x02, 0xbe, 0xd9, 0x01, 0xec, 0xbb,
  0xfc, 0xc0, 0x16, 0x3d, 0x0d, 0x59, 0x78, 0x3d, 0xa5, 0x4d, 0x2e, 0x3e,
  0xe1, 0x22, 0x88, 0xbe, 0xc7, 0xe4, 0x6f, 0x3c, 0xc8, 0x5d, 0x2b, 0xbe,
  0x86, 0x6f, 0x21, 0xbe, 0x0c, 0x8d, 0x65, 0xbe, 0x69, 0x1e, 0xb1, 0x3d,
  0x2f, 0x2f, 0x89, 0xbd, 0x24, 0x52, 0xa1, 0xbc, 0x2b, 0xf4, 0x48, 0xbe,
  0x37, 0x07, 0xd8, 0x3d, 0x65, 0xc5, 0xd9, 0x3d, 0xd7, 0xf3, 0x08, 0xbe,
  0xb8, 0x85, 0x31, 0xbd, 0x74, 0xc3, 0xeb, 0x3c, 0xfd, 0x21, 0x43, 0xbe,
  0xa6, 0xfb, 0x98, 0x3c, 0x7b, 0x5e, 0x29, 0xbe, 0xa6, 0x5d, 0x3d, 0xbc,
  0xa7, 0x28, 0x38, 0xbe, 0xca, 0xd9, 0x6a, 0xbd, 0xdf, 0x32, 0x34, 0xbe,
  0xe4, 0xbe, 0x64, 0xbe, 0x1b, 0x94, 0xc9, 0x3d, 0x95, 0xb9, 0xa5, 0xbd,
  0x50, 0x99, 0xd1, 0xbd, 0x48, 0xb5, 0xa7, 0xbd, 0xd2, 0xb7, 0x02, 0xbe,
  0xcb, 0xda, 0x05, 0x3d, 0x60, 0x0e, 0x02, 0xbe, 0xa7, 0x55, 0x4c, 0xbe,
  0x0e, 0x92, 0xa3, 0x3d, 0x1c, 0x07, 0x4c, 0x3e, 0xc4, 0xb0, 0xad, 0xbc,
  0xff, 0x85, 0xf8, 0xbd, 0x6e, 0xda, 0x3f, 0xbe, 0x72, 0x14, 0xfd, 0x3d,
  0xe6, 0x32, 0x2b, 0x3b, 0xbf, 0x6e, 0xcd, 0x3d, 0xb2, 0x5c, 0x47, 0xbe,
  0x0e, 0xb3, 0x46, 0xbe, 0xc4, 0x87, 0x86, 0xbe, 0xf2, 0xe6, 0x33, 0xbe,
  0x5b, 0x27, 0x01, 0xbd, 0x75, 0x03, 0x2b, 0xbc, 0x18, 0x95, 0x3d, 0xbd,
  0x19, 0x05, 0xf3, 0xbc, 0xb9, 0x16, 0x2a, 0xbc, 0x32, 0x74, 0xcf, 0x3c,
  0xc5, 0xee, 0x4f, 0x3b, 0x1b, 0xcd, 0x83, 0xbe, 0x59, 0x70, 0x6f, 0xbe,
  0xc1, 0x9a, 0xf1, 0xbd, 0x2d, 0xcd, 0x43, 0xbe, 0x67, 0x69, 0x97, 0xbd,
  0xe8, 0x2b, 0xb6, 0x3d, 0xf5, 0xb5, 0x98, 0xbe, 0xa0, 0x42, 0x51, 0xbe,
  0xb0, 0x4e, 0xf3, 0xbc, 0x62, 0x0e, 0x0e, 0xbe, 0x7a, 0x8a, 0x1f, 0xbe,
  0xe1, 0x99, 0xc9, 0xbd, 0x8d, 0x32, 0xaa, 0xbb, 0x63, 0x3a, 0xc3, 0x3d,
  0xd2, 0xed, 0x4b, 0x3d, 0xc9, 0xfb, 0xf3, 0xbb, 0x76, 0x44, 0x0a, 0xbe,
  0x60, 0xe9, 0x9a, 0xbd, 0x4b, 0x94, 0x87, 0x3c, 0xb4, 0xb4, 0x35, 0xbd,
  0xb3, 0x95, 0xe5, 0x3b, 0xd1, 0x10, 0xd5, 0xbd, 0xca, 0x29, 0x5f, 0xbe,
  0x0f, 0x8a, 0xc2, 0xbd, 0x48, 0xfd, 0x93, 0xbb, 0x9c, 0x03, 0x88, 0xbd,
  0x15, 0xdb, 0x45, 0x3e, 0x50, 0xe0, 0x64, 0xbe, 0x75, 0xca, 0x59, 0xbe,
  0xf1, 0xfb, 0x04, 0x3e, 0xc3, 0x82, 0x5f, 0xbe, 0x7b, 0xd0, 0x33, 0xbe,
  0xb4, 0x60, 0xd9, 0xbc, 0x25, 0x94, 0x78, 0xbe, 0x83, 0x8f, 0x0e, 0xbd,
  0x8a, 0xbf, 0xe8, 0xbd, 0xf9, 0x08, 0x22, 0xbe, 0xac, 0xbf, 0xee, 0xbd,
  0xb3, 0x1e, 0x58, 0xbe, 0xcf, 0x4f, 0x5e, 0xbe, 0x7a, 0x66, 0x71, 0xbe,
  0xc7, 0x72, 0x1b, 0x3e, 0x96, 0x16, 0xc7, 0xbd, 0x5c, 0x6a, 0xa9, 0xbd,
  0xab, 0x6d, 0x21, 0xbe, 0x54, 0x80, 0x77, 0x3b, 0xa6, 0x25, 0x0f, 0xbe,
  0x35, 0x6a, 0x8c, 0x3c, 0xae, 0xbb, 0x1d, 0xbc, 0x16, 0xda, 0xcf, 0xbd,
  0xe7, 0xea, 0x29, 0x3d, 0x37, 0x66, 0x4f, 0xbc, 0xc8, 0x2b, 0x86, 0x3c,
  0xf6, 0xb0, 0xc7, 0xbd, 0x9c, 0xd7, 0x1c, 0xbe, 0xd9, 0xe2, 0x37, 0xbe,
  0x3f, 0xf1, 0xce, 0xbc, 0xc1, 0x1a, 0x09, 0xbd, 0x8f, 0xd6, 0xe8, 0x3d,
  0xf2, 0xf4, 0x2a, 0xbd, 0x40, 0x08, 0x17, 0xbd, 0x11, 0xfc, 0x55, 0xbd,
  0x2c, 0xe2, 0xd8, 0x3b, 0xf3, 0x00, 0x70, 0xbd, 0x47, 0xf2, 0x6b, 0xbd,
  0x35, 0xc4, 0x0e, 0x3e, 0x23, 0x65, 0x8e, 0x3e, 0x1e, 0x74, 0x13, 0x3d,
  0xbd, 0xf7, 0x20, 0x3d, 0x03, 0x6b, 0xcd, 0x3d, 0x96, 0xc9, 0x20, 0x3d,
  0x9e, 0x50, 0x8c, 0x3d, 0x9f, 0xa6, 0xc7, 0x3d, 0x1e, 0x6a, 0x90, 0x3f,
  0x45, 0x63, 0xbf, 0x3e, 0x36, 0x86, 0x41, 0x3d, 0xfb, 0xd6, 0xe9, 0x3e,
  0xee, 0x69, 0x9e, 0xbd, 0xaa, 0x7b, 0x89, 0x3c, 0x13, 0x3d, 0x8a, 0xbd,
  0xb9, 0x73, 0x95, 0xbd, 0x7f, 0x70, 0xd3, 0x3b, 0xfe, 0x4f, 0xc7, 0xbd,
  0x3a, 0xf5, 0xf1, 0x3d, 0x71, 0x4a, 0xc4, 0x3d, 0xdd, 0x32, 0xbe, 0x3d,
  0x87, 0x57, 0x51, 0x3d, 0xb9, 0x59, 0x02, 0x3e, 0xff, 0x38, 0x3b, 0xbd,
  0xf7, 0x60, 0xc6, 0x3f, 0x15, 0x04, 0x71, 0x3f, 0xd6, 0xd8, 0x75, 0x3c,
  0x3b, 0x36, 0x45, 0x3f, 0x26, 0xb7, 0x63, 0xbe, 0xa8, 0xf7, 0x05, 0xbe,
  0x12, 0xbe, 0x92, 0xbb, 0x2c, 0xb0, 0x34, 0xbd, 0xcc, 0xeb, 0x96, 0xbd,
  0xc7, 0xaa, 0x7f, 0xbe, 0xcd, 0xde, 0x77, 0xbe, 0x7f, 0x4f, 0x25, 0x3c,
  0x8d, 0xf1, 0x5b, 0xbe, 0xdf, 0x80, 0x6d, 0x3d, 0x04, 0xe3, 0xcf, 0x3d,
  0x09, 0x45, 0x21, 0xbe, 0x4d, 0x3c, 0xbd, 0x3f, 0xde, 0x27, 0x25, 0x3f,
  0x68, 0x5c, 0xc5, 0xbe, 0x48, 0xe5, 0x48, 0x3f, 0xb5, 0x38, 0xa4, 0xbe,
  0x14, 0x7f, 0xe3, 0xbd, 0xf8, 0x41, 0x8c, 0x3c, 0xca, 0x40, 0x3a, 0xbd,
  0x8b, 0x56, 0xfe, 0xbd, 0xa9, 0xad, 0x1f, 0x3e, 0xa6, 0x67, 0x0e, 0xbe,
  0x8e, 0x06, 0x86, 0xbe, 0x84, 0x80, 0x90, 0xbe, 0x99, 0xf8, 0x11, 0xbe,
  0x78, 0xd9, 0x04, 0xbf, 0xd7, 0x16, 0x85, 0xbe, 0xa6, 0xc2, 0xa3, 0x3f,
  0xe3, 0x1e, 0xdc, 0x3e, 0x5a, 0x23, 0xc3, 0xbe, 0x51, 0xb0, 0x2b, 0x3f,
  0x00, 0xab, 0x5b, 0xbe, 0xa3, 0x88, 0x91, 0x3c, 0xae, 0x51, 0xa6, 0x3d,
  0xe1, 0x2d, 0xce, 0xbc, 0xe2, 0x90, 0x27, 0xbd, 0x98, 0x02, 0xe4, 0x3e,
  0xb4, 0xe9, 0x67, 0xbd, 0x5d, 0xe9, 0x82, 0xbe, 0x46, 0x88, 0x60, 0xbd,
  0x28, 0x71, 0x09, 0xbe, 0x52, 0x66, 0x95, 0x3d, 0x33, 0x21, 0xa2, 0x3d,
  0xc3, 0xd4, 0x6d, 0x3f, 0xfe, 0x5d, 0x3b, 0x3f, 0x2a, 0x25, 0xc1, 0x3d,
  0x97, 0x71, 0x26, 0x3f, 0x82, 0xa9, 0x1a, 0xbe, 0x4e, 0xe7, 0x45, 0x3e,
  0x1d, 0x5c, 0x58, 0xbd, 0x75, 0x69, 0xc6, 0x3a, 0x93, 0x01, 0x4e, 0x3d,
  0x9d, 0x70, 0x2d, 0x3f, 0x10, 0xf3, 0x2c, 0x3d, 0x18, 0xc7, 0x3e, 0x3c,
  0xc9, 0x13, 0x8e, 0x3d, 0x4c, 0xb5, 0x8d, 0xbb, 0x0d, 0xcd, 0x32, 0x3e,
  0x02, 0xf9, 0xd4, 0x3d, 0x31, 0xa6, 0x79, 0x3f, 0xe4, 0x65, 0x67, 0x3f,
  0x3a, 0x6f, 0x39, 0x3d, 0x0e, 0x68, 0x0f, 0x3f, 0x31, 0xf9, 0x32, 0xbd,
  0x07, 0xc7, 0x0a, 0xbc, 0x6f, 0x30, 0x1c, 0xbd, 0xde, 0x74, 0x09, 0xbb,
  0xc2, 0x6e, 0xf3, 0xbc, 0x71, 0x0f, 0x5e, 0xbe, 0xa4, 0x22, 0xdd, 0x3a,
  0x8e, 0xb6, 0x9c, 0x3d, 0x91, 0x97, 0x24, 0xbd, 0xab, 0x75, 0xd6, 0x3c,
  0x80, 0xe9, 0x80, 0xbb, 0x88, 0x8d, 0xce, 0xbc, 0x21, 0x2b, 0xdc, 0x3f,
  0x30, 0x80, 0x34, 0xbe, 0x5f, 0xcd, 0xde, 0x3d, 0xd7, 0x10, 0x47, 0xbd,
  0x17, 0x82, 0xf1, 0xbd, 0xa2, 0xc3, 0x3f, 0xbe, 0x84, 0xe6, 0x92, 0x3d,
  0xa3, 0xa6, 0x3c, 0x3d, 0xd6, 0x2f, 0xef, 0xbd, 0x30, 0x36, 0xe6, 0xbe,
  0x20, 0x41, 0x0c, 0xbe, 0x1c, 0xda, 0x1f, 0xbf, 0x1a, 0xc4, 0xd8, 0xbe,
  0x22, 0x78, 0xb2, 0xbd, 0xa5, 0x90, 0x53, 0xbe, 0x0b, 0x60, 0xbd, 0x3c,
  0x79, 0xb7, 0xb4, 0x3d, 0x48, 0x3e, 0xfc, 0xbd, 0x51, 0x61, 0x48, 0xbe,
  0xa1, 0xa5, 0xda, 0xbe, 0x95, 0x89, 0xf8, 0x3d, 0xc4, 0x38, 0xf2, 0x3c,
  0x2f, 0xf8, 0xb4, 0x3e, 0x67, 0xf5, 0xe2, 0x3d, 0xec, 0x91, 0xbe, 0xbd,
  0x19, 0x53, 0xec, 0x3d, 0x51, 0x1e, 0xd1, 0x3d, 0x14, 0x02, 0xba, 0xbe,
  0x6b, 0x53, 0x8d, 0x3d, 0x24, 0x70, 0xa6, 0xbd, 0x28, 0xcc, 0xb8, 0xbd,
  0xb1, 0x4f, 0xa8, 0xbd, 0x52, 0xf4, 0x06, 0xbe, 0xa5, 0x15, 0xce, 0xbd,
  0xba, 0x40, 0xc0, 0xbd, 0xc9, 0xf0, 0xb2, 0xbd, 0x6a, 0x18, 0xf5, 0x3e,
  0x80, 0xb5, 0x89, 0x3d, 0x0f, 0xf0, 0x28, 0x3d, 0x2f, 0xc5, 0xba, 0x3d,
  0xff, 0xde, 0xd9, 0x3d, 0xcb, 0x99, 0x59, 0x3e, 0x75, 0x61, 0x9d, 0x3d,
  0xfd, 0x01, 0x74, 0xbe, 0x61, 0xf2, 0xb6, 0x3d, 0x0f, 0x7f, 0x80, 0x3d,
  0x08, 0x16, 0x5d, 0xbc, 0x6d, 0xdc, 0xbf, 0xbd, 0x09, 0xde, 0x84, 0xbe,
  0x86, 0xe1, 0xcc, 0xbc, 0xd3, 0xd5, 0x4c, 0xbd, 0xca, 0x30, 0x0e, 0x3c,
  0xd8, 0x64, 0x05, 0x3f, 0x5a, 0x04, 0x07, 0x3e, 0xce, 0x10, 0xae, 0x3d,
  0xdc, 0xc7, 0x4f, 0x3d, 0xd2, 0xc6, 0xbc, 0xbd, 0x5a, 0x51, 0x74, 0x3e,
  0xd9, 0x38, 0x40, 0xbd, 0x6b, 0x02, 0x9b, 0xbe, 0x06, 0xb0, 0x11, 0x3e,
  0xdd, 0x78, 0x3f, 0xbd, 0x41, 0x1d, 0x01, 0x3e, 0x3a, 0xd8, 0x55, 0xbd,
  0x3d, 0x20, 0x0b, 0xbe, 0x3a, 0x2b, 0xa8, 0x3d, 0x22, 0x43, 0xcb, 0x3d,
  0xdf, 0x71, 0x14, 0x3e, 0x04, 0xe6, 0x9e, 0x3e, 0xf8, 0xc9, 0x2f, 0xbc,
  0x78, 0xf0, 0x4b, 0x3e, 0x87, 0x9f, 0xf6, 0x3b, 0x0e, 0x68, 0x3d, 0x3e,
  0xc8, 0xb3, 0xcc, 0xbc, 0xc7, 0xf5, 0x80, 0x3d, 0xbf, 0x59, 0x0b, 0xbe,
  0x2b, 0x53, 0xa8, 0x3c, 0x39, 0x91, 0xe9, 0xba, 0xdc, 0xdd, 0x89, 0x3e,
  0x10, 0x0c, 0x65, 0xbe, 0x4a, 0x2a, 0x88, 0xbe, 0x1f, 0xd1, 0x4f, 0x3d,
  0xfd, 0x2a, 0x02, 0xbe, 0x42, 0x15, 0x60, 0xbd, 0xbd, 0xf9, 0x9f, 0x3e,
  0xcd, 0x66, 0x2b, 0x3d, 0xd0, 0x7c, 0xd8, 0x3d, 0x5e, 0xd5, 0x75, 0x3d,
  0x88, 0xe9, 0x28, 0xbd, 0xaa, 0xed, 0x98, 0xbd, 0x5f, 0xdd, 0x04, 0xbe,
  0xa7, 0xa4, 0xaf, 0xbe, 0xe0, 0xe8, 0x37, 0xbc, 0xd8, 0xc7, 0xcd, 0xbc,
  0x61, 0x28, 0x17, 0x3d, 0x0c, 0xb2, 0x85, 0xbe, 0xb3, 0xad, 0x94, 0xbd,
  0x66, 0x36, 0x40, 0xbd, 0x47, 0x0c, 0x7a, 0xbe, 0x92, 0x28, 0x09, 0xbe,
  0x96, 0x68, 0x90, 0x3e, 0x1f, 0x71, 0x43, 0xbe, 0xc7, 0x51, 0x55, 0xbe,
  0x34, 0x7d, 0xa1, 0x3d, 0xd0, 0x10, 0xaf, 0xbd, 0xf0, 0x57, 0xe2, 0xbd,
  0x59, 0xb4, 0x26, 0xbd, 0x78, 0x99, 0xf0, 0xbd, 0xbf, 0x24, 0xa3, 0x3b,
  0x96, 0x57, 0x21, 0x3b, 0x26, 0x01, 0xee, 0xbd, 0x6f, 0x68, 0x22, 0xbe,
  0x64, 0x06, 0xbf, 0xbe, 0xd7, 0x25, 0x75, 0x3e, 0x2f, 0x45, 0x3f, 0xbe,
  0xd0, 0x6e, 0x09, 0x3e, 0xa8, 0xb6, 0x13, 0x3e, 0x1f, 0xc7, 0xd7, 0xbd,
  0x46, 0x89, 0xca, 0x3d, 0x3e, 0xc7, 0xce, 0x3d, 0x9e, 0x0f, 0x9f, 0xbe,
  0xd9, 0x00, 0x2c, 0xbe, 0x80, 0x59, 0x09, 0xbe, 0xab, 0x70, 0xea, 0xbe,
  0x22, 0x25, 0x64, 0xbd, 0xf0, 0x76, 0xad, 0xbd, 0x3a, 0xee, 0x1b, 0xbe,
  0xb0, 0xfc, 0xaa, 0x3d, 0xa6, 0x47, 0x5a, 0xbb, 0xe9, 0x50, 0x31, 0xbe,
  0xa8, 0xd9, 0x4b, 0xbe, 0x42, 0x00, 0x73, 0xbe, 0x2b, 0x50, 0xe7, 0x3d,
  0x3d, 0x9f, 0x71, 0xbd, 0xfa, 0xf3, 0x9e, 0x3e, 0x2d, 0x92, 0xe3, 0xbc,
  0x1f, 0x26, 0x9b, 0xbe, 0x74, 0x8d, 0x93, 0x3e, 0x47, 0xa7, 0x4f, 0x3e,
  0xd4, 0x21, 0xa4, 0xbd, 0x20, 0x0f, 0x67, 0x3d, 0xc4, 0xf1, 0xd4, 0x3c,
  0x5d, 0x13, 0x56, 0xbd, 0xaf, 0x22, 0x85, 0x3d, 0xe3, 0x86, 0xcc, 0xb9,
  0xd4, 0x0b, 0x8a, 0xbd, 0x3e, 0x26, 0x3a, 0xbe, 0xcf, 0x20, 0x1a, 0xbf,
  0x49, 0x88, 0x00, 0x3f, 0x33, 0x44, 0x39, 0x3e, 0x18, 0x71, 0x03, 0x3f,
  0x77, 0x80, 0xf9, 0x3c, 0x58, 0xd3, 0x15, 0xbf, 0x7e, 0x1a, 0x05, 0x3e,
  0xc0, 0x08, 0x85, 0x3e, 0xd8, 0xfd, 0xc3, 0x3d, 0x80, 0x1d, 0x86, 0x3d,
  0x5a, 0x5e, 0xec, 0x3d, 0x7b, 0xb2, 0xca, 0x3c, 0xed, 0xcc, 0xe2, 0xbd,
  0xa4, 0xf9, 0x13, 0xbe, 0x41, 0xe5, 0x8a, 0xbd, 0xed, 0xad, 0x7c, 0xbb,
  0x8f, 0x82, 0xb9, 0xbe, 0x48, 0x18, 0x1e, 0x3f, 0x58, 0xef, 0x25, 0x3e,
  0x63, 0x36, 0x84, 0x3e, 0x19, 0x78, 0x48, 0x3d, 0xb8, 0x2c, 0xc1, 0xbe,
  0xb8, 0xea, 0x55, 0xbd, 0xb2, 0x3f, 0x8f, 0x3d, 0x73, 0xd6, 0xc3, 0x3d,
  0x71, 0x89, 0x39, 0x3d, 0xaf, 0x28, 0x42, 0x3d, 0x1e, 0x72, 0x08, 0x3d,
  0xef, 0x48, 0x6c, 0xbe, 0xff, 0x99, 0x9d, 0x3d, 0x23, 0xf3, 0x82, 0xbe,
  0x98, 0xe6, 0x25, 0x3d, 0xda, 0x95, 0x74, 0xbe, 0x34, 0xd9, 0x22, 0x3f,
  0x9b, 0x61, 0x00, 0x3d, 0xc0, 0xb7, 0xd3, 0x3e, 0xec, 0x03, 0x18, 0x3d,
  0x19, 0xf2, 0x6e, 0xbe, 0xab, 0x29, 0xdb, 0x3d, 0xb1, 0xce, 0x1c, 0x3e,
  0x6b, 0xfb, 0xa0, 0x3d, 0x87, 0xc0, 0x3b, 0x3e, 0x51, 0x4a, 0x3d, 0x3e,
  0xfe, 0x3c, 0xa2, 0x3e, 0x3d, 0x3a, 0x10, 0xbe, 0xe0, 0x73, 0x8a, 0x3d,
  0xb1, 0xcf, 0xab, 0xbd, 0xea, 0xb7, 0xdb, 0xbd, 0xad, 0xd6, 0x28, 0xbe,
  0x58, 0x4e, 0xe1, 0x3e, 0xcd, 0x3b, 0x80, 0xbe, 0xae, 0x53, 0xfa, 0x3e,
  0x82, 0x0f, 0x24, 0x3d, 0xc3, 0xd7, 0xfd, 0xbe, 0x2f, 0xa0, 0xb5, 0xbd,
  0xfa, 0x4c, 0xc8, 0xbd, 0x8d, 0x53, 0x14, 0xbd, 0xef, 0xa0, 0x67, 0x3d,
  0x95, 0x55, 0x1f, 0x3c, 0x6c, 0x87, 0x82, 0x3e, 0xcf, 0x5e, 0x12, 0xbf,
  0x05, 0x11, 0x32, 0x3d, 0x36, 0x92, 0xc3, 0x3a, 0x97, 0x9e, 0x82, 0xbe,
  0x48, 0x43, 0xeb, 0xbe, 0x2a, 0x84, 0x45, 0x3e, 0x08, 0x24, 0x75, 0xbe,
  0xed, 0x89, 0x2c, 0xbe, 0x22, 0xf7, 0x3d, 0x3e, 0x0f, 0xe3, 0x7f, 0xbe,
  0xed, 0x84, 0x56, 0x3e, 0x99, 0xbb, 0xb2, 0xbb, 0xe7, 0x91, 0x70, 0x3a,
  0xc6, 0x4e, 0xf1, 0xbe, 0x73, 0x9d, 0xcd, 0xbc, 0x64, 0x57, 0x4f, 0xbe,
  0xe4, 0x4e, 0xdc, 0xbd, 0x9e, 0xc1, 0x58, 0xbe, 0x35, 0xce, 0xb4, 0x3e,
  0xdd, 0x84, 0x98, 0xbe, 0x19, 0xdd, 0x08, 0x3e, 0x18, 0x51, 0x27, 0x3e,
  0x39, 0xcd, 0xee, 0xbc, 0x7b, 0xd9, 0x05, 0xbc, 0x5e, 0xc3, 0xae, 0xbd,
  0xdc, 0x21, 0x07, 0x3e, 0xc9, 0x28, 0x86, 0x3e, 0x4a, 0xfc, 0x23, 0xbe,
  0xc6, 0xbb, 0x00, 0xbe, 0x47, 0xdb, 0x50, 0x3e, 0xf1, 0x73, 0x8a, 0xbe,
  0x15, 0x5c, 0x48, 0x3e, 0xcd, 0x1a, 0xea, 0x3d, 0x53, 0x5a, 0x33, 0x3e,
  0x95, 0x7f, 0xe7, 0x3d, 0x82, 0x62, 0x98, 0xbd, 0x1a, 0xef, 0xb4, 0x3e,
  0x91, 0x6d, 0x3f, 0x3e, 0x9d, 0xe1, 0x0c, 0xbd, 0x58, 0xc9, 0xa2, 0xbd,
  0x1b, 0x1c, 0xbe, 0xbc, 0xe7, 0x9a, 0xf7, 0xbd, 0xbc, 0xd0, 0xc2, 0xbe,
  0x19, 0x6a, 0x0c, 0xbe, 0x50, 0x63, 0x05, 0x3d, 0x19, 0x16, 0x86, 0xbd,
  0xca, 0xdf, 0x87, 0xbe, 0x24, 0xd7, 0x2c, 0xbe, 0xaa, 0x2a, 0xd4, 0xbd,
  0xe5, 0x50, 0x54, 0xbe, 0x58, 0xbd, 0x6a, 0xbe, 0x89, 0xf0, 0x22, 0xbd,
  0x5b, 0x43, 0xa8, 0xbe, 0xdd, 0xa4, 0x78, 0xbe, 0xfe, 0x2c, 0x3e, 0xbe,
  0x06, 0xa3, 0xb7, 0x3b, 0xbe, 0x9c, 0x40, 0xbd, 0xa2, 0x9b, 0x4e, 0xbd,
  0xbf, 0xf8, 0x1a, 0xbd, 0x2e, 0x33, 0xb8, 0xbe, 0x13, 0x89, 0x52, 0xbe,
  0x2c, 0xfd, 0xa2, 0xbd, 0xd3, 0x19, 0xa3, 0xbe, 0xbb, 0x6d, 0x4c, 0xbe,
  0x8f, 0x11, 0x16, 0xbe, 0x82, 0x7f, 0x5a, 0xbe, 0x6a, 0xa4, 0xc3, 0xbd,
  0xc7, 0x6c, 0x64, 0xbe, 0x59, 0x50, 0xf4, 0xbe, 0xc6, 0xef, 0x6b, 0xbe,
  0xa9, 0x57, 0xd5, 0xbd, 0xfb, 0x80, 0x90, 0x3d, 0xdf, 0x7a, 0x34, 0xbd,
  0x86, 0xdf, 0x18, 0xbe, 0xcc, 0xec, 0xee, 0xbd, 0x70, 0x78, 0xce, 0xbe,
  0x92, 0x42, 0x47, 0xbe, 0x92, 0xf2, 0xa8, 0xbd, 0x5a, 0x3f, 0xd1, 0xbe,
  0x41, 0x89, 0xbc, 0xbe, 0xd1, 0x50, 0x6b, 0xbe, 0x45, 0x72, 0xa6, 0xbe,
  0x59, 0x72, 0x96, 0xbe, 0x4c, 0x47, 0xa0, 0xbe, 0xe1, 0x47, 0xce, 0xbe,
  0x90, 0x4f, 0x4a, 0xbe, 0xb4, 0xb5, 0xa5, 0xbd, 0xd3, 0xa3, 0x00, 0xbe,
  0x3d, 0x7e, 0x7b, 0xbd, 0x56, 0x02, 0x52, 0xbd, 0x86, 0x13, 0x1a, 0x3f,
  0x9a, 0x1d, 0x4b, 0xbe, 0x19, 0x11, 0xb2, 0xbe, 0x6f, 0x70, 0xb2, 0x3d,
  0x17, 0x49, 0x96, 0xbe, 0x67, 0xeb, 0xa9, 0xbd, 0xbc, 0xf3, 0xbd, 0xbd,
  0x5d, 0x44, 0xb5, 0xbe, 0x58, 0xea, 0x93, 0xbe, 0x14, 0x20, 0xb4, 0xbd,
  0x0f, 0xad, 0xc1, 0x3e, 0x1b, 0x21, 0xf5, 0xbc, 0x56, 0xb0, 0xe4, 0x3d,
  0xc7, 0x62, 0x41, 0xb9, 0xe5, 0x1e, 0xfd, 0xbd, 0x10, 0xfc, 0x29, 0x3d,
  0x97, 0xbe, 0xd3, 0x3e, 0xaa, 0x6c, 0x04, 0xbc, 0x69, 0xdf, 0x15, 0xbd,
  0x77, 0x66, 0x76, 0x3e, 0x36, 0x3e, 0xa9, 0xbe, 0x27, 0x88, 0xa2, 0x3e,
  0xa1, 0x9c, 0x70, 0x3d, 0x8f, 0x27, 0x2a, 0xbd, 0x64, 0x1b, 0x03, 0xbd,
  0xf0, 0x83, 0xcd, 0xbc, 0x8b, 0x95, 0x91, 0x3e, 0x20, 0x24, 0x5c, 0x3c,
  0xe7, 0x51, 0x6c, 0x3c, 0xa5, 0x6f, 0x96, 0x3d, 0x7b, 0xf3, 0x01, 0xbd,
  0x99, 0xd4, 0x24, 0x3d, 0x24, 0xc8, 0x48, 0x3e, 0x57, 0x72, 0xc0, 0xbc,
  0x81, 0xee, 0x16, 0xbd, 0x6b, 0x6c, 0x8e, 0x3d, 0x9b, 0x49, 0x90, 0xbc,
  0x02, 0x0c, 0x0f, 0x3c, 0x7c, 0x63, 0x3c, 0x3d, 0x72, 0x57, 0xc2, 0xbd,
  0x08, 0x3d, 0xad, 0xbc, 0x76, 0x33, 0xc1, 0x3d, 0xb8, 0xe7, 0x6e, 0x3e,
  0x72, 0xfb, 0x3d, 0x3d, 0xa5, 0x12, 0x54, 0x3d, 0xc2, 0x11, 0xdf, 0xbe,
  0xe5, 0xa0, 0x03, 0xbd, 0x29, 0xe8, 0x8f, 0xbe, 0x4f, 0xc3, 0xc7, 0x3d,
  0x89, 0x0e, 0x1c, 0xbd, 0xc1, 0x59, 0x59, 0x3e, 0xcf, 0xa5, 0x97, 0xbe,
  0x54, 0x76, 0x81, 0xbd, 0xac, 0xdc, 0x7e, 0xbe, 0xca, 0x24, 0x0b, 0x3d,
  0x99, 0xc7, 0xc7, 0xbe, 0xf1, 0x45, 0x08, 0xbe, 0x3d, 0x6c, 0x41, 0x3e,
  0x0f, 0xdc, 0xb1, 0xbe, 0xfa, 0xb8, 0x8f, 0xbe, 0x97, 0xdd, 0xba, 0xbe,
  0x63, 0x3e, 0x9f, 0xbe, 0x95, 0x5d, 0x12, 0xbd, 0xd7, 0xe9, 0x29, 0xbe,
  0xa1, 0x9f, 0x10, 0x3e, 0xdf, 0xd3, 0x2d, 0xbc, 0x15, 0xf8, 0x85, 0x3e,
  0x1b, 0xb6, 0xb5, 0x3d, 0x07, 0xed, 0x0b, 0x3d, 0xfa, 0x08, 0x08, 0xbe,
  0x7e, 0x15, 0x47, 0xbd, 0x62, 0x19, 0xce, 0x3d, 0xf5, 0x62, 0x8b, 0x3d,
  0xe5, 0x4b, 0x84, 0x3e, 0xea, 0x09, 0x07, 0x3e, 0xa7, 0xce, 0xe7, 0xbe,
  0xc7, 0x6a, 0x3a, 0x3e, 0x33, 0xe5, 0x1f, 0xbe, 0xe7, 0xfe, 0x0a, 0xbd,
  0xca, 0xe6, 0xc7, 0x3d, 0xf9, 0x88, 0x63, 0xbd, 0x76, 0x00, 0x72, 0x3c,
  0x63, 0x2d, 0x85, 0x3e, 0xb1, 0x13, 0x34, 0xbc, 0x20, 0x87, 0xcc, 0xbc,
  0x75, 0xe3, 0x37, 0x3e, 0xdb, 0x6b, 0x48, 0x3e, 0x64, 0x48, 0x41, 0xbd,
  0x65, 0xe1, 0xae, 0x3d, 0xbe, 0xe0, 0x75, 0x3e, 0xa5, 0x36, 0x7d, 0xbe,
  0x6f, 0xf4, 0x76, 0xbe, 0x27, 0xaa, 0x1f, 0x3e, 0xd3, 0x52, 0x2f, 0x3d,
  0xd8, 0xae, 0x54, 0xbd, 0xa6, 0x04, 0x3d, 0x3e, 0xee, 0x59, 0x53, 0xbc,
  0x61, 0x21, 0xc5, 0xbd, 0x5f, 0x2f, 0x74, 0x3e, 0x12, 0x1a, 0xfa, 0x3e,
  0xc3, 0xf0, 0x94, 0xbd, 0x8f, 0xa3, 0xa8, 0x3e, 0xde, 0xdb, 0x61, 0x3e,
  0x30, 0xea, 0x82, 0xbd, 0x5b, 0x6e, 0x3f, 0xbe, 0x73, 0x3b, 0x91, 0x3e,
  0x63, 0xe2, 0x77, 0xbc, 0x2a, 0xbd, 0xda, 0xbe, 0x65, 0x82, 0x05, 0x3e,
  0xab, 0xae, 0xb2, 0xbe, 0x08, 0x37, 0x71, 0xbd, 0x7a, 0x8b, 0x3b, 0x3d,
  0x16, 0x19, 0xd1, 0xbe, 0x47, 0x0b, 0x5f, 0xbd, 0x9d, 0x03, 0x47, 0x3e,
  0x1e, 0xd5, 0x27, 0xbd, 0xc0, 0x76, 0x1d, 0x3c, 0x9b, 0xf3, 0x05, 0x3e,
  0x13, 0xca, 0x88, 0x3d, 0x10, 0x01, 0x41, 0x39, 0x07, 0x91, 0x0c, 0x3d,
  0x65, 0x8f, 0xb8, 0x3e, 0xf0, 0xba, 0xbb, 0xbe, 0x32, 0x8c, 0xf9, 0xbe,
  0x6d, 0xc1, 0x0b, 0xbf, 0x62, 0x01, 0xff, 0xbd, 0x36, 0x7e, 0xde, 0xbd,
  0xe4, 0x14, 0xce, 0xbd, 0xf8, 0x00, 0xde, 0xbe, 0xd5, 0x4d, 0x1f, 0x3c,
  0x84, 0x5f, 0xae, 0x3e, 0x9d, 0xbd, 0xb3, 0xbe, 0xe9, 0x65, 0x99, 0xbd,
  0xfa, 0x4a, 0x95, 0xbe, 0x9b, 0x8d, 0x8e, 0x3d, 0x78, 0x75, 0xa3, 0x3d,
  0xcc, 0x95, 0xed, 0xbc, 0x4f, 0x5b, 0x4d, 0x3e, 0x19, 0x7e, 0xe9, 0xbe,
  0x59, 0x52, 0xf9, 0xbe, 0xa2, 0x61, 0xf4, 0xbd, 0x9a, 0x39, 0xcb, 0x3a,
  0x54, 0x6a, 0x07, 0xbe, 0x0a, 0x25, 0x08, 0x3d, 0x91, 0xc0, 0x00, 0xbe,
  0xa1, 0x76, 0xaa, 0x3b, 0xbb, 0x37, 0x23, 0xbd, 0x69, 0x96, 0x88, 0xbd,
  0x54, 0xb3, 0x9a, 0x3d, 0x9a, 0xbe, 0x5f, 0xbe, 0xce, 0xf4, 0x05, 0x3e,
  0xaf, 0xec, 0x48, 0x3c, 0x26, 0xbf, 0x47, 0xbe, 0xb9, 0x43, 0x06, 0x3e,
  0x57, 0x17, 0x19, 0xbe, 0x65, 0xb6, 0xa6, 0xbe, 0x43, 0x0a, 0x7c, 0x3d,
  0xa1, 0xbf, 0xb5, 0xbd, 0x07, 0x2b, 0xc4, 0xbd, 0x0f, 0xa6, 0x8d, 0x3d,
  0xa3, 0xbd, 0xb3, 0x3d, 0x90, 0x43, 0x87, 0xbe, 0xaa, 0x95, 0x7f, 0xbd,
  0x4a, 0xfe, 0x15, 0xbe, 0x01, 0x2f, 0xbd, 0xbd, 0x32, 0x24, 0x85, 0xbe,
  0xbc, 0x4a, 0xad, 0xb9, 0xfe, 0xaf, 0x01, 0xbe, 0x9f, 0x94, 0xbb, 0xbd,
  0xc4, 0xe5, 0x68, 0xbe, 0xb0, 0x4c, 0x29, 0xbe, 0xcb, 0xb3, 0x01, 0xbe,
  0xb7, 0x02, 0x4e, 0x3d, 0x01, 0x52, 0x56, 0x3d, 0x1a, 0xff, 0x8d, 0xbd,
  0x50, 0xc6, 0x7e, 0xbd, 0x77, 0xf0, 0x29, 0x3e, 0xad, 0xd3, 0x40, 0xbd,
  0xb0, 0x70, 0x4e, 0xbd, 0x23, 0xd2, 0xdb, 0x3d, 0xb4, 0x49, 0x93, 0xbe,
  0x4e, 0xfb, 0x42, 0xbe, 0xb0, 0xf6, 0x27, 0xbe, 0x7d, 0xdb, 0xd3, 0x3d,
  0xae, 0x64, 0x36, 0x3d, 0xc4, 0x4f, 0x83, 0x3d, 0x69, 0xd6, 0xe4, 0x3d,
  0x1a, 0x0a, 0x0a, 0x3e, 0xa3, 0xd2, 0xb2, 0x3d, 0xcd, 0x8e, 0xc5, 0xbd,
  0xb0, 0x4b, 0x96, 0xbd, 0x60, 0xc6, 0x8d, 0xbd, 0x9a, 0x48, 0x8d, 0xbd,
  0x5a, 0x8a, 0x7b, 0xbd, 0xc7, 0x62, 0x19, 0x3e, 0x1d, 0x18, 0x95, 0x3d,
  0xe4, 0xff, 0x7e, 0xbd, 0xbd, 0x70, 0x85, 0xbd, 0x33, 0xd0, 0xb3, 0x3d,
  0x39, 0x29, 0xe1, 0xbd, 0x11, 0x66, 0xde, 0x3a, 0xac, 0x53, 0x98, 0xbe,
  0x55, 0xc3, 0x4c, 0xbe, 0x80, 0x4d, 0x2f, 0xbd, 0x60, 0x83, 0x94, 0xbc,
  0xa2, 0xe6, 0x03, 0xbd, 0x24, 0xf8, 0xb2, 0xbc, 0x19, 0x4a, 0xbc, 0x3c,
  0x14, 0xe4, 0x04, 0x3d, 0x7b, 0xdc, 0x65, 0x3c, 0xc7, 0xbe, 0xb4, 0xbd,
  0xa3, 0xcc, 0x6a, 0xbe, 0x48, 0x43, 0x67, 0x3c, 0x2c, 0xdd, 0xad, 0xbd,
  0x0d, 0xc7, 0x27, 0x3d, 0x6c, 0x9d, 0x81, 0xbc, 0x5e, 0xf5, 0x16, 0xbe,
  0x6d, 0x93, 0x91, 0xbe, 0xcf, 0xf0, 0x0a, 0xbe, 0x32, 0x34, 0x41, 0x3d,
  0x75, 0xa8, 0x33, 0x3e, 0xc0, 0xa4, 0xea, 0xbd, 0x2b, 0xf9, 0xbd, 0xbd,
  0x92, 0xd8, 0xcb, 0xbd, 0xc1, 0x03, 0x5d, 0x3d, 0x3a, 0x24, 0x10, 0xbe,
  0x6c, 0x12, 0xa3, 0x3d, 0xc0, 0xb6, 0xc8, 0xbd, 0x54, 0x27, 0x30, 0xbe,
  0x95, 0x32, 0x31, 0xbd, 0xf9, 0xa7, 0xd6, 0xbc, 0x63, 0x40, 0x1d, 0x3e,
  0x90, 0x74, 0xaa, 0xbd, 0x36, 0xa3, 0xc2, 0xbd, 0x5b, 0x21, 0x78, 0x3c,
  0x7d, 0x88, 0x07, 0xbc, 0x6b, 0x56, 0x5e, 0x3d, 0x17, 0x61, 0x7c, 0xbe,
  0xdd, 0x27, 0x69, 0xbe, 0x6e, 0x1d, 0xc7, 0xbd, 0x34, 0x34, 0x21, 0xbe,
  0x7c, 0x6e, 0x6c, 0xbe, 0x32, 0x38, 0x12, 0xbd, 0x68, 0x10, 0x16, 0x3e,
  0x47, 0x43, 0x92, 0xbd, 0x0d, 0x62, 0x04, 0xbe, 0x1b, 0xe1, 0x31, 0xbe,
  0x84, 0xdb, 0x65, 0xbe, 0xbc, 0x71, 0x4f, 0xbe, 0x74, 0x45, 0x9e, 0xbd,
  0x4d, 0x92, 0xba, 0xbc, 0x80, 0x09, 0xe1, 0xbd, 0xa5, 0x54, 0x81, 0x3e,
  0xcb, 0x2f, 0x25, 0x3e, 0x8e, 0x18, 0x9b, 0x3d, 0x23, 0x61, 0x99, 0xbd,
  0xa3, 0xfc, 0x89, 0x3e, 0x40, 0x3c, 0xdc, 0xbd, 0x68, 0x91, 0x06, 0xbe,
  0xe4, 0xc5, 0x25, 0xbe, 0xa0, 0xdf, 0xef, 0xbd, 0x6d, 0xf5, 0xa7, 0xbe,
  0xf9, 0xb8, 0x00, 0x3d, 0x86, 0x1b, 0xf4, 0xbd, 0xd5, 0x53, 0x4d, 0xbe,
  0x6c, 0x9e, 0x2d, 0x3d, 0x76, 0x1d, 0x4e, 0xbe, 0x80, 0x4f, 0x94, 0xbd,
  0x4b, 0xa6, 0x11, 0x3e, 0x1d, 0x88, 0x29, 0xbf, 0xb4, 0xeb, 0x0b, 0xbd,
  0xd0, 0x91, 0x4c, 0xbf, 0x75, 0x4f, 0x39, 0xbd, 0x42, 0x38, 0xb7, 0xbe,
  0xcb, 0xec, 0xb8, 0xbe, 0x1b, 0x25, 0x6c, 0xbe, 0x62, 0x2e, 0xab, 0xbd,
  0x72, 0xb0, 0xc5, 0x3c, 0x6e, 0xef, 0x57, 0xbe, 0x18, 0x59, 0x65, 0x3d,
  0xca, 0x46, 0xc7, 0x3c, 0xc2, 0xe5, 0x7e, 0xbe, 0xf9, 0x3e, 0x78, 0xbe,
  0xa4, 0x5c, 0x52, 0xba, 0xaf, 0xde, 0x1d, 0xbf, 0x3a, 0xdd, 0x03, 0xbd,
  0xfd, 0xc4, 0x5d, 0x3d, 0xb4, 0xb6, 0x7e, 0xbf, 0x8a, 0x13, 0x8b, 0x3e,
  0xe1, 0x3d, 0xd5, 0xbe, 0x45, 0x8e, 0xa1, 0xbe, 0x70, 0xd6, 0x68, 0xbd,
  0x1a, 0x59, 0x36, 0xbe, 0x04, 0xbd, 0xb6, 0x3d, 0xc9, 0x90, 0xe7, 0xbd,
  0x8f, 0xc8, 0x4d, 0xbe, 0x70, 0x65, 0x0b, 0x3d, 0xe6, 0x2d, 0x20, 0x3b,
  0x34, 0x96, 0x1b, 0x3e, 0x47, 0x9e, 0x59, 0xbe, 0x8a, 0xb4, 0x2b, 0x3d,
  0xa3, 0x81, 0xc2, 0xbd, 0x61, 0x65, 0xa8, 0x3c, 0x6a, 0xba, 0x50, 0xbf,
  0x4e, 0xe6, 0x08, 0xbd, 0xbe, 0xab, 0x1c, 0xbd, 0x6a, 0x63, 0x85, 0xbe,
  0x93, 0xed, 0x81, 0x3e, 0xcd, 0xf8, 0x97, 0xbc, 0x03, 0x9f, 0xb3, 0x3d,
  0x59, 0xda, 0x16, 0xbd, 0xe0, 0x21, 0x7d, 0x3d, 0xff, 0x8e, 0x20, 0xbd,
  0x45, 0x58, 0x1b, 0x3d, 0x95, 0x7c, 0x05, 0xbd, 0x4f, 0x5d, 0xb4, 0xbe,
  0xbb, 0xe5, 0x21, 0xbe, 0x84, 0xb4, 0xb0, 0xbd, 0x9c, 0xa7, 0xc6, 0xbc,
  0x0d, 0xc6, 0x85, 0xbe, 0xdb, 0x3a, 0x5a, 0xbd, 0xd3, 0x59, 0x55, 0xba,
  0xbd, 0xf9, 0x5e, 0x3e, 0x60, 0xbd, 0xbe, 0x3d, 0x18, 0x0b, 0x41, 0xbd,
  0x3a, 0x80, 0x3a, 0x3e, 0x29, 0x4e, 0x9b, 0x3b, 0xe8, 0xdb, 0x92, 0x3d,
  0x3d, 0xab, 0x0a, 0x3c, 0x01, 0x93, 0x00, 0x3e, 0x87, 0xba, 0xa4, 0xbd,
  0x7d, 0x38, 0x5c, 0xbe, 0x83, 0xca, 0xdb, 0xbe, 0xbb, 0x63, 0x2b, 0xbe,
  0xba, 0x05, 0x51, 0xbd, 0x26, 0xab, 0x07, 0xbe, 0x7d, 0x0e, 0xb1, 0xbe,
  0x51, 0x67, 0x40, 0x3e, 0x4e, 0x3e, 0xce, 0x3e, 0x1e, 0xdd, 0x39, 0x3e,
  0xa6, 0xee, 0x84, 0x3d, 0x5c, 0xb7, 0x44, 0x3d, 0x35, 0x53, 0x11, 0x3d,
  0x5e, 0x01, 0x23, 0x3d, 0x50, 0x2a, 0x4a, 0xbe, 0x6b, 0xba, 0x4f, 0x3e,
  0xa3, 0xbd, 0x93, 0xbe, 0x24, 0x98, 0x89, 0xbe, 0x1e, 0xbc, 0xaf, 0xbe,
  0x97, 0x01, 0x96, 0xbe, 0xe1, 0x70, 0xae, 0xbd, 0x57, 0xf9, 0x28, 0xbd,
  0x0e, 0x6a, 0xbb, 0xbe, 0xdc, 0xbf, 0x28, 0x3e, 0x3d, 0xc8, 0x50, 0x3e,
  0xfe, 0x6b, 0x2c, 0xbe, 0x5d, 0x11, 0xd2, 0x3d, 0x85, 0x34, 0x89, 0xbe,
  0x7c, 0x33, 0xf2, 0x3c, 0x3e, 0x73, 0x8f, 0xbd, 0x0e, 0xb4, 0xed, 0x3c,
  0xd2, 0x7e, 0xc7, 0x3d, 0x0f, 0xe9, 0x3b, 0xbf, 0xf7, 0x25, 0x83, 0xbe,
  0x5d, 0xdb, 0x3b, 0xbe, 0xef, 0x90, 0x66, 0x3d, 0x2d, 0xf8, 0x99, 0xbe,
  0xc7, 0x5c, 0xd9, 0x3d, 0x15, 0x5c, 0x9d, 0xbd, 0xf0, 0xd3, 0x39, 0x3d,
  0x0e, 0xe6, 0x25, 0x3d, 0x12, 0xb8, 0x70, 0x3d, 0x35, 0x99, 0x0d, 0x3d,
  0x70, 0x1f, 0x23, 0xbe, 0x63, 0x01, 0xe9, 0x3d, 0x21, 0x65, 0x25, 0x3b,
  0x5b, 0x8e, 0xe5, 0xbd, 0x55, 0x32, 0x86, 0x3d, 0x7d, 0x7a, 0x40, 0xbe,
  0x34, 0x21, 0x2c, 0xbe, 0xb2, 0x6f, 0xfc, 0xbd, 0x4a, 0xfe, 0xff, 0xff,
  0x10, 0x00, 0x00, 0x00, 0x05, 0x00, 0x00, 0x00, 0x14, 0x00, 0x00, 0x00,
  0x2c, 0x00, 0x00, 0x00, 0x02, 0x00, 0x00, 0x00, 0x10, 0x00, 0x00, 0x00,
  0x70, 0x00, 0x00, 0x00, 0x17, 0x00, 0x00, 0x00, 0x73, 0x65, 0x71, 0x75,
  0x65, 0x6e, 0x74, 0x69, 0x61, 0x6c, 0x2f, 0x64, 0x65, 0x6e, 0x73, 0x65,
  0x2f, 0x4d, 0x61, 0x74, 0x4d, 0x75, 0x6c, 0x00, 0x38, 0xfe, 0xff, 0xff,
  0x2e, 0xff, 0xff, 0xff, 0x04, 0x00, 0x00, 0x00, 0x08, 0x00, 0x00, 0x00,
  0xff, 0xff, 0xff, 0xff, 0x70, 0x00, 0x00, 0x00, 0x00, 0x00, 0x0e, 0x00,
  0x18, 0x00, 0x08, 0x00, 0x07, 0x00, 0x0c, 0x00, 0x10, 0x00, 0x14, 0x00,
  0x0e, 0x00, 0x00, 0x00, 0x00, 0x00, 0x00, 0x02, 0x10, 0x00, 0x00, 0x00,
  0x04, 0x00, 0x00, 0x00, 0x10, 0x00, 0x00, 0x00, 0x2c, 0x00, 0x00, 0x00,
  0x01, 0x00, 0x00, 0x00, 0x02, 0x00, 0x00, 0x00, 0x18, 0x00, 0x00, 0x00,
  0x73, 0x65, 0x71, 0x75, 0x65, 0x6e, 0x74, 0x69, 0x61, 0x6c, 0x2f, 0x66,
  0x6c, 0x61, 0x74, 0x74, 0x65, 0x6e, 0x2f, 0x43, 0x6f, 0x6e, 0x73, 0x74,
  0x00, 0x00, 0x00, 0x00, 0xa0, 0xfe, 0xff, 0xff, 0x96, 0xff, 0xff, 0xff,
  0x04, 0x00, 0x00, 0x00, 0x0c, 0x00, 0x00, 0x00, 0x94, 0x04, 0x29, 0xbf,
  0x9f, 0x74, 0x5b, 0xc0, 0xbd, 0xc1, 0x16, 0x40, 0x0a, 0xff, 0xff, 0xff,
  0x10, 0x00, 0x00, 0x00, 0x03, 0x00, 0x00, 0x00, 0x10, 0x00, 0x00, 0x00,
  0x3c, 0x00, 0x00, 0x00, 0x01, 0x00, 0x00, 0x00, 0x03, 0x00, 0x00, 0x00,
  0x29, 0x00, 0x00, 0x00, 0x73, 0x65, 0x71, 0x75, 0x65, 0x6e, 0x74, 0x69,
  0x61, 0x6c, 0x2f, 0x64, 0x65, 0x6e, 0x73, 0x65, 0x5f, 0x31, 0x2f, 0x42,
  0x69, 0x61, 0x73, 0x41, 0x64, 0x64, 0x2f, 0x52, 0x65, 0x61, 0x64, 0x56,
  0x61, 0x72, 0x69, 0x61, 0x62, 0x6c, 0x65, 0x4f, 0x70, 0x00, 0x00, 0x00,
  0x60, 0xff, 0xff, 0xff, 0x00, 0x00, 0x06, 0x00, 0x08, 0x00, 0x04, 0x00,
  0x06, 0x00, 0x00, 0x00, 0x04, 0x00, 0x00, 0x00, 0x40, 0x00, 0x00, 0x00,
  0x3e, 0x4b, 0xa8, 0x3f, 0x3b, 0x1d, 0x68, 0xbe, 0xa7, 0x23, 0x5c, 0xbe,
  0x2e, 0x50, 0x85, 0xbf, 0x77, 0xb5, 0x9d, 0xbf, 0xa0, 0xa7, 0x3e, 0x40,
  0x46, 0x6f, 0xc9, 0xbf, 0xfb, 0x97, 0x51, 0xbf, 0x44, 0xb2, 0xb5, 0xbe,
  0x63, 0x7f, 0xb8, 0xbf, 0x26, 0x53, 0x17, 0x40, 0x5a, 0xc9, 0x32, 0x40,
  0xc8, 0xc5, 0x27, 0xbf, 0xeb, 0x2e, 0xc8, 0xbf, 0xc2, 0x23, 0xb2, 0xbe,
  0xfe, 0x19, 0x8a, 0xbf, 0xae, 0xff, 0xff, 0xff, 0x10, 0x00, 0x00, 0x00,
  0x02, 0x00, 0x00, 0x00, 0x10, 0x00, 0x00, 0x00, 0x3c, 0x00, 0x00, 0x00,
  0x01, 0x00, 0x00, 0x00, 0x10, 0x00, 0x00, 0x00, 0x27, 0x00, 0x00, 0x00,
  0x73, 0x65, 0x71, 0x75, 0x65, 0x6e, 0x74, 0x69, 0x61, 0x6c, 0x2f, 0x64,
  0x65, 0x6e, 0x73, 0x65, 0x2f, 0x42, 0x69, 0x61, 0x73, 0x41, 0x64, 0x64,
  0x2f, 0x52, 0x65, 0x61, 0x64, 0x56, 0x61, 0x72, 0x69, 0x61, 0x62, 0x6c,
  0x65, 0x4f, 0x70, 0x00, 0x04, 0x00, 0x06, 0x00, 0x04, 0x00, 0x00, 0x00,
  0x00, 0x00, 0x0e, 0x00, 0x14, 0x00, 0x04, 0x00, 0x00, 0x00, 0x08, 0x00,
  0x0c, 0x00, 0x10, 0x00, 0x0e, 0x00, 0x00, 0x00, 0x10, 0x00, 0x00, 0x00,
  0x01, 0x00, 0x00, 0x00, 0x1c, 0x00, 0x00, 0x00, 0x2c, 0x00, 0x00, 0x00,
  0x04, 0x00, 0x00, 0x00, 0x01, 0x00, 0x00, 0x00, 0x40, 0x00, 0x00, 0x00,
  0x03, 0x00, 0x00, 0x00, 0x01, 0x00, 0x00, 0x00, 0x0c, 0x00, 0x00, 0x00,
  0x63, 0x6f, 0x6e, 0x76, 0x32, 0x64, 0x5f, 0x69, 0x6e, 0x70, 0x75, 0x74,
  0x00, 0x00, 0x00, 0x00, 0xfc, 0xff, 0xff, 0xff, 0x04, 0x00, 0x04, 0x00,
  0x04, 0x00, 0x00, 0x00
};
unsigned int model_tflite_len = 12316;// Fill the int in `src/model.cc` here